{
  "version": "1.0",
  "truncation": null,
  "padding": null,
  "added_tokens": [
    {
      "id": 0,
      "content": "<pad>",
      "single_word": false,
      "lstrip": false,
      "rstrip": false,
      "normalized": false,
      "special": true
    },
    {
      "id": 1,
      "content": "<bos>",
      "single_word": false,
      "lstrip": false,
      "rstrip": false,
      "normalized": false,
      "special": true
    },
    {
      "id": 2,
      "content": "<eos>",
      "single_word": false,
      "lstrip": false,
      "rstrip": false,
      "normalized": false,
      "special": true
    },
    {
      "id": 3,
      "content": "<unk>",
      "single_word": false,
      "lstrip": false,
      "rstrip": false,
      "normalized": false,
      "special": true
    }
  ],
  "normalizer": {
    "type": "NFC"
  },
  "pre_tokenizer": {
    "type": "ByteLevel",
    "add_prefix_space": false,
    "trim_offsets": true,
    "use_regex": true
  },
  "post_processor": null,
  "decoder": {
    "type": "ByteLevel",
    "add_prefix_space": true,
    "trim_offsets": true,
    "use_regex": true
  },
  "model": {
    "type": "BPE",
    "dropout": null,
    "unk_token": "<unk>",
    "continuing_subword_prefix": null,
    "end_of_word_suffix": null,
    "fuse_unk": false,
    "byte_fallback": false,
    "ignore_merges": false,
    "vocab": {
      "<pad>": 0,
      "<bos>": 1,
      "<eos>": 2,
      "<unk>": 3,
      "!": 4,
      "\"": 5,
      "#": 6,
      "$": 7,
      "%": 8,
      "&": 9,
      "'": 10,
      "(": 11,
      ")": 12,
      "*": 13,
      "+": 14,
      ",": 15,
      "-": 16,
      ".": 17,
      "/": 18,
      "0": 19,
      "1": 20,
      "2": 21,
      "3": 22,
      "4": 23,
      "5": 24,
      "6": 25,
      "7": 26,
      "8": 27,
      "9": 28,
      ":": 29,
      ";": 30,
      "<": 31,
      "=": 32,
      ">": 33,
      "?": 34,
      "@": 35,
      "A": 36,
      "B": 37,
      "C": 38,
      "D": 39,
      "E": 40,
      "F": 41,
      "G": 42,
      "H": 43,
      "I": 44,
      "J": 45,
      "K": 46,
      "L": 47,
      "M": 48,
      "N": 49,
      "O": 50,
      "P": 51,
      "Q": 52,
      "R": 53,
      "S": 54,
      "T": 55,
      "U": 56,
      "V": 57,
      "W": 58,
      "X": 59,
      "Y": 60,
      "Z": 61,
      "[": 62,
      "\\": 63,
      "]": 64,
      "^": 65,
      "_": 66,
      "`": 67,
      "a": 68,
      "b": 69,
      "c": 70,
      "d": 71,
      "e": 72,
      "f": 73,
      "g": 74,
      "h": 75,
      "i": 76,
      "j": 77,
      "k": 78,
      "l": 79,
      "m": 80,
      "n": 81,
      "o": 82,
      "p": 83,
      "q": 84,
      "r": 85,
      "s": 86,
      "t": 87,
      "u": 88,
      "v": 89,
      "w": 90,
      "x": 91,
      "y": 92,
      "z": 93,
      "|": 94,
      "}": 95,
      "~": 96,
      "¡": 97,
      "¢": 98,
      "£": 99,
      "¤": 100,
      "¥": 101,
      "¦": 102,
      "§": 103,
      "¨": 104,
      "©": 105,
      "ª": 106,
      "«": 107,
      "¬": 108,
      "®": 109,
      "¯": 110,
      "°": 111,
      "±": 112,
      "²": 113,
      "³": 114,
      "´": 115,
      "µ": 116,
      "¶": 117,
      "·": 118,
      "¸": 119,
      "¹": 120,
      "º": 121,
      "»": 122,
      "¼": 123,
      "½": 124,
      "¾": 125,
      "¿": 126,
      "Â": 127,
      "Ã": 128,
      "Ä": 129,
      "Å": 130,
      "Æ": 131,
      "Ç": 132,
      "È": 133,
      "É": 134,
      "Ê": 135,
      "Ë": 136,
      "Ì": 137,
      "Í": 138,
      "Î": 139,
      "Ï": 140,
      "Ð": 141,
      "Ñ": 142,
      "Ò": 143,
      "Ó": 144,
      "Ô": 145,
      "Õ": 146,
      "Ö": 147,
      "×": 148,
      "Ø": 149,
      "Ù": 150,
      "Ú": 151,
      "Û": 152,
      "Ü": 153,
      "ß": 154,
      "à": 155,
      "á": 156,
      "â": 157,
      "ã": 158,
      "ä": 159,
      "å": 160,
      "æ": 161,
      "ç": 162,
      "è": 163,
      "é": 164,
      "ê": 165,
      "ë": 166,
      "ì": 167,
      "í": 168,
      "î": 169,
      "ï": 170,
      "ð": 171,
      "Ċ": 172,
      "Ġ": 173,
      "Ģ": 174,
      "ģ": 175,
      "Ĥ": 176,
      "ĥ": 177,
      "Ħ": 178,
      "ħ": 179,
      "Ĩ": 180,
      "ĩ": 181,
      "Ī": 182,
      "ī": 183,
      "Ĭ": 184,
      "ĭ": 185,
      "Į": 186,
      "į": 187,
      "İ": 188,
      "ı": 189,
      "Ĳ": 190,
      "ĳ": 191,
      "Ĵ": 192,
      "ĵ": 193,
      "Ķ": 194,
      "ķ": 195,
      "ĸ": 196,
      "Ĺ": 197,
      "ĺ": 198,
      "Ļ": 199,
      "ļ": 200,
      "Ľ": 201,
      "ľ": 202,
      "Ŀ": 203,
      "ŀ": 204,
      "Ł": 205,
      "ł": 206,
      "Ń": 207,
      "Ġt": 208,
      "Ġa": 209,
      "he": 210,
      "in": 211,
      "re": 212,
      "on": 213,
      "Ġthe": 214,
      "er": 215,
      "Ġs": 216,
      "Ġw": 217,
      "at": 218,
      "Ġo": 219,
      "nd": 220,
      "Ġc": 221,
      "it": 222,
      "or": 223,
      "is": 224,
      "en": 225,
      "es": 226,
      "Ġf": 227,
      "Ġb": 228,
      "ou": 229,
      "ing": 230,
      "Ġp": 231,
      "ed": 232,
      "an": 233,
      "al": 234,
      "Ġto": 235,
      "ar": 236,
      "Ġm": 237,
      "Ġof": 238,
      "Ġand": 239,
      "Ġin": 240,
      "Ġd": 241,
      "ic": 242,
      "Ġh": 243,
      "as": 244,
      "le": 245,
      "Ġth": 246,
      "om": 247,
      "ion": 248,
      "ll": 249,
      "ent": 250,
      "Ġl": 251,
      "st": 252,
      "Ġn": 253,
      "ve": 254,
      "Ġre": 255,
      "Ġe": 256,
      "ro": 257,
      "Ġg": 258,
      "ĠI": 259,
      "âĢ": 260,
      "ly": 261,
      "Ġbe": 262,
      "ct": 263,
      "ĠS": 264,
      "ĠT": 265,
      "ut": 266,
      "ot": 267,
      "id": 268,
      "ay": 269,
      "Ġy": 270,
      "et": 271,
      "Ġon": 272,
      "Ġis": 273,
      "Ġfor": 274,
      "ĠC": 275,
      "ĠA": 276,
      "ow": 277,
      "am": 278,
      "ad": 279,
      "se": 280,
      "ur": 281,
      "im": 282,
      "ig": 283,
      "ac": 284,
      "Ġthat": 285,
      "ver": 286,
      "Ġyou": 287,
      "Ġu": 288,
      "il": 289,
      "ol": 290,
      "Ġst": 291,
      "ation": 292,
      "ĠM": 293,
      "ith": 294,
      "ir": 295,
      "Ġhe": 296,
      "Ġit": 297,
      "Ġwith": 298,
      "ce": 299,
      "ch": 300,
      "ĠB": 301,
      "ĠP": 302,
      "Ġwe": 303,
      "Ġwh": 304,
      "ter": 305,
      "ill": 306,
      "Ġan": 307,
      "Ġas": 308,
      "âĢĻ": 309,
      "ers": 310,
      "ra": 311,
      "ke": 312,
      "ld": 313,
      "ĠW": 314,
      "ĠH": 315,
      "Ġha": 316,
      "if": 317,
      "Ġat": 318,
      "Ġpro": 319,
      "ĠD": 320,
      "ge": 321,
      "her": 322,
      "Ġ1": 323,
      "Ġcon": 324,
      "Ġare": 325,
      "oo": 326,
      "ate": 327,
      "Ġse": 328,
      "ĠR": 329,
      "ĠF": 330,
      "ri": 331,
      "Ġwas": 332,
      "pp": 333,
      "Ġ2": 334,
      "ĠThe": 335,
      "ul": 336,
      "Ġor": 337,
      "ore": 338,
      "Ġcom": 339,
      "ment": 340,
      "Ġ(": 341,
      "th": 342,
      "igh": 343,
      "Ġde": 344,
      "est": 345,
      "us": 346,
      "ess": 347,
      "rom": 348,
      "ist": 349,
      "ew": 350,
      "un": 351,
      "ab": 352,
      "ĠL": 353,
      "pe": 354,
      "'s": 355,
      "ĠN": 356,
      "Ġr": 357,
      "ĠG": 358,
      "res": 359,
      "Ġex": 360,
      "em": 361,
      "ity": 362,
      "ant": 363,
      "op": 364,
      "Ġv": 365,
      "Ġhave": 366,
      "Ġsu": 367,
      "ive": 368,
      "Ġthis": 369,
      "qu": 370,
      "Ġnot": 371,
      "ĠE": 372,
      "Ġby": 373,
      "ort": 374,
      "Ġfrom": 375,
      "ain": 376,
      "art": 377,
      "Ġsh": 378,
      "and": 379,
      "el": 380,
      "nt": 381,
      "ust": 382,
      "os": 383,
      "oc": 384,
      "ight": 385,
      "um": 386,
      "ies": 387,
      "00": 388,
      "all": 389,
      "Ġal": 390,
      "ĠO": 391,
      "ould": 392,
      "Ġch": 393,
      "ard": 394,
      "out": 395,
      "ĠJ": 396,
      "ear": 397,
      "Ġle": 398,
      "ud": 399,
      "ĠâĢ": 400,
      "our": 401,
      "ome": 402,
      "gh": 403,
      "Ġwill": 404,
      "Ġab": 405,
      "red": 406,
      "ast": 407,
      "ost": 408,
      "iv": 409,
      "Ġcan": 410,
      "Ġpl": 411,
      "ally": 412,
      "ack": 413,
      "Ġj": 414,
      "te": 415,
      "The": 416,
      "Ġdo": 417,
      "Ġwor": 418,
      "od": 419,
      "Ġall": 420,
      "rou": 421,
      "Ġyour": 422,
      "ak": 423,
      "ag": 424,
      "Ġbut": 425,
      "Ġhas": 426,
      "Ġk": 427,
      "ide": 428,
      "ine": 429,
      "ie": 430,
      "..": 431,
      "Ġme": 432,
      "Ġwhe": 433,
      "ff": 434,
      "ice": 435,
      "Ġne": 436,
      "ure": 437,
      "pt": 438,
      "ĠU": 439,
      "Ġhis": 440,
      "Ġout": 441,
      "ich": 442,
      "ther": 443,
      "per": 444,
      "Ġsa": 445,
      "ction": 446,
      "Ġ\"": 447,
      "ial": 448,
      "Ġup": 449,
      "age": 450,
      "Ġthey": 451,
      "Ġad": 452,
      "one": 453,
      "pl": 454,
      "ook": 455,
      "ame": 456,
      "ry": 457,
      "og": 458,
      "Ġus": 459,
      "âĢĿ": 460,
      "ong": 461,
      "Ġmore": 462,
      "Ġtheir": 463,
      "are": 464,
      "Ġso": 465,
      "ind": 466,
      "Ġone": 467,
      "Ġmy": 468,
      "ake": 469,
      "ood": 470,
      "ated": 471,
      "Ġwho": 472,
      "Ġte": 473,
      "ber": 474,
      "very": 475,
      "ime": 476,
      "ip": 477,
      "ans": 478,
      "ous": 479,
      "ike": 480,
      "Ġabout": 481,
      "Ġcomp": 482,
      "ite": 483,
      "Ġen": 484,
      "able": 485,
      "Ġcl": 486,
      "Ġgo": 487,
      "cc": 488,
      "iz": 489,
      "ĠK": 490,
      "orm": 491,
      "ĠIn": 492,
      "ĠTh": 493,
      "Ġ-": 494,
      "ĠSt": 495,
      "Ġcont": 496,
      "ect": 497,
      "ru": 498,
      "Ġim": 499,
      "ia": 500,
      "ace": 501,
      "Ġoff": 502,
      "cl": 503,
      "ks": 504,
      "ions": 505,
      "ary": 506,
      "so": 507,
      "Ġman": 508,
      "01": 509,
      "ub": 510,
      "Ġwhich": 511,
      "ire": 512,
      "Ġyear": 513,
      "ap": 514,
      "ree": 515,
      "ase": 516,
      "ance": 517,
      "to": 518,
      "ail": 519,
      "Ġres": 520,
      "ays": 521,
      "au": 522,
      "ib": 523,
      "act": 524,
      "Ġhad": 525,
      "ven": 526,
      "Ġper": 527,
      "ĠâĢľ": 528,
      "du": 529,
      "ach": 530,
      "Ġother": 531,
      "ass": 532,
      "ign": 533,
      "ep": 534,
      "Ġour": 535,
      "ĠY": 536,
      "Ġapp": 537,
      "ĠCh": 538,
      "ations": 539,
      "Ġwere": 540,
      "Ġag": 541,
      "Ġsaid": 542,
      "ick": 543,
      "ĠV": 544,
      "ue": 545,
      "ond": 546,
      "Ġlike": 547,
      "reat": 548,
      "Ġwould": 549,
      "Ġ3": 550,
      "Ġany": 551,
      "ord": 552,
      "Ġqu": 553,
      "Ġbeen": 554,
      "Ġsome": 555,
      "ical": 556,
      "own": 557,
      "Ġun": 558,
      "ult": 559,
      "ount": 560,
      "Ġdis": 561,
      "Ġnew": 562,
      "ile": 563,
      "'t": 564,
      "Ġtime": 565,
      "Ġher": 566,
      "Ġkn": 567,
      "ove": 568,
      "ress": 569,
      "Ġget": 570,
      "ough": 571,
      "Ġthere": 572,
      "ose": 573,
      "form": 574,
      "Ġsp": 575,
      "Ġthem": 576,
      "Ġover": 577,
      "erv": 578,
      "ings": 579,
      "Ġar": 580,
      "Ġpart": 581,
      "ence": 582,
      "ĠIt": 583,
      "Ġalso": 584,
      "Ġwhen": 585,
      "mer": 586,
      "av": 587,
      "Ġsc": 588,
      "Ġrec": 589,
      "Ġtr": 590,
      "Ġpe": 591,
      "fe": 592,
      "Ġwhat": 593,
      "Ġjust": 594,
      "ark": 595,
      "Ġthan": 596,
      "ound": 597,
      "irst": 598,
      "Ġwork": 599,
      "int": 600,
      "ition": 601,
      "vel": 602,
      "ors": 603,
      "Ġif": 604,
      "Ġ201": 605,
      "ents": 606,
      "ĠHe": 607,
      "ink": 608,
      "ren": 609,
      "ens": 610,
      "ob": 611,
      "Ġfe": 612,
      "port": 613,
      "Ġtw": 614,
      "Ġbec": 615,
      "Ġpre": 616,
      "wn": 617,
      "Ġro": 618,
      "ish": 619,
      "ory": 620,
      "Ġspe": 621,
      "fter": 622,
      "ild": 623,
      "Ġinto": 624,
      "itt": 625,
      "ne": 626,
      "ople": 627,
      "Ġits": 628,
      "vers": 629,
      "lic": 630,
      "Ġfirst": 631,
      "ck": 632,
      "ov": 633,
      "ĠWe": 634,
      "nder": 635,
      "ade": 636,
      "oy": 637,
      "Ġ19": 638,
      "Ġshe": 639,
      "Ġam": 640,
      "day": 641,
      "ons": 642,
      "ning": 643,
      "Ġ200": 644,
      "old": 645,
      "Ġno": 646,
      "hed": 647,
      "Ġco": 648,
      "rough": 649,
      "ater": 650,
      "ang": 651,
      "Ġpeople": 652,
      "amp": 653,
      "Ġacc": 654,
      "Ġ4": 655,
      "clud": 656,
      "Ġhow": 657,
      "Ġbl": 658,
      "ian": 659,
      "Ġonly": 660,
      "ates": 661,
      "we": 662,
      "ause": 663,
      "Ġtwo": 664,
      "Ġpo": 665,
      "Ġcomm": 666,
      "ft": 667,
      "Ġmay": 668,
      "ious": 669,
      "Ġneed": 670,
      "Ġknow": 671,
      "ric": 672,
      "anc": 673,
      "ull": 674,
      "Ġback": 675,
      "Ġdes": 676,
      "Ġ5": 677,
      "end": 678,
      "ments": 679,
      "Ġplay": 680,
      "ual": 681,
      "hing": 682,
      "tern": 683,
      "iss": 684,
      "gr": 685,
      "Ġadd": 686,
      "Ġlook": 687,
      "iew": 688,
      "Ġbet": 689,
      "ĠRe": 690,
      "Ġinclud": 691,
      "Ġsee": 692,
      "Ġmost": 693,
      ").": 694,
      "ph": 695,
      "Ġhim": 696,
      "Ġafter": 697,
      "...": 698,
      "les": 699,
      "round": 700,
      "Ġcould": 701,
      "aw": 702,
      "Ġmake": 703,
      "ily": 704,
      "com": 705,
      "Ġwant": 706,
      "rent": 707,
      "Ġevery": 708,
      "Ġthrough": 709,
      "Ġfl": 710,
      "Ġem": 711,
      "sel": 712,
      "Ġprov": 713,
      "Ġunder": 714,
      "Th": 715,
      "ise": 716,
      "Ġact": 717,
      "Ġdid": 718,
      "Ġind": 719,
      ".\"": 720,
      "xt": 721,
      "oll": 722,
      "Ġcons": 723,
      "urn": 724,
      "ational": 725,
      "Ġthese": 726,
      "fore": 727,
      "ool": 728,
      "Ġyears": 729,
      "uch": 730,
      "Ġwell": 731,
      "Ġnow": 732,
      "ĠThis": 733,
      "ating": 734,
      "Ġgood": 735,
      "ities": 736,
      "Ġhel": 737,
      "Ġ$": 738,
      "Ġvery": 739,
      "ts": 740,
      "Ġph": 741,
      "row": 742,
      "Ġbu": 743,
      "ĠUn": 744,
      "Ġuse": 745,
      "ock": 746,
      "ont": 747,
      "enc": 748,
      "Ġhelp": 749,
      "Ġeven": 750,
      "ife": 751,
      "Ġsec": 752,
      "Ġthen": 753,
      "ject": 754,
      "ident": 755,
      "lect": 756,
      "Ġright": 757,
      "pect": 758,
      "Ġprodu": 759,
      "ting": 760,
      "Ġway": 761,
      "Ġinv": 762,
      "rit": 763,
      "Ġstud": 764,
      "Ġdon": 765,
      "hen": 766,
      "ss": 767,
      "ec": 768,
      "als": 769,
      "Ġpr": 770,
      "Ġthink": 771,
      "Ġsy": 772,
      "Ġbecause": 773,
      "Ġreg": 774,
      "Ġev": 775,
      "Ġsupp": 776,
      "Ġshould": 777,
      "Ġserv": 778,
      "oth": 779,
      "Ġagain": 780,
      "Ġmany": 781,
      "Ġwhere": 782,
      "ific": 783,
      "Ġrem": 784,
      "Ġrel": 785,
      "Ġgu": 786,
      "ty": 787,
      "man": 788,
      "Ġtoo": 789,
      "ell": 790,
      "oss": 791,
      "rib": 792,
      "),": 793,
      "ied": 794,
      "ward": 795,
      "ange": 796,
      "Ġ6": 797,
      "Ġcol": 798,
      "ason": 799,
      "Ġimp": 800,
      "ĠCom": 801,
      "ĠAnd": 802,
      "aking": 803,
      "Ġdif": 804,
      "Ġinc": 805,
      "ased": 806,
      "other": 807,
      "ath": 808,
      "Ġfin": 809,
      "ful": 810,
      "Ġmuch": 811,
      "Ġass": 812,
      "Ġdown": 813,
      "ited": 814,
      "ert": 815,
      "ict": 816,
      "olog": 817,
      "ĠWh": 818,
      "Ġgreat": 819,
      "erson": 820,
      "get": 821,
      "up": 822,
      "Ġke": 823,
      "formation": 824,
      "Ġsm": 825,
      "Ġatt": 826,
      "ĠNew": 827,
      "Ġown": 828,
      "ĠâĢĵ": 829,
      "Ġshow": 830,
      "Ġwee": 831,
      "und": 832,
      "Ġent": 833,
      "uring": 834,
      "ble": 835,
      "Ġtra": 836,
      "ork": 837,
      "Ġhere": 838,
      "ible": 839,
      "ility": 840,
      "Ġstart": 841,
      "Ġlast": 842,
      "chool": 843,
      "ures": 844,
      "bs": 845,
      ",\"": 846,
      "its": 847,
      "Ġpres": 848,
      "ative": 849,
      "Ġsuch": 850,
      "ics": 851,
      "arch": 852,
      "ower": 853,
      "Ġthose": 854,
      "In": 855,
      ".âĢĿ": 856,
      "hip": 857,
      "stem": 858,
      "Ġcall": 859,
      "Ġmade": 860,
      "ublic": 861,
      "cess": 862,
      "ular": 863,
      "hes": 864,
      "air": 865,
      "Ġdoes": 866,
      "ys": 867,
      "Ġac": 868,
      "omet": 869,
      "Ġlong": 870,
      "Ġbefore": 871,
      "ms": 872,
      "ĠYou": 873,
      "ener": 874,
      "Ġdec": 875,
      "ix": 876,
      "ĠAn": 877,
      "Ġend": 878,
      "ues": 879,
      "ci": 880,
      "gan": 881,
      "ner": 882,
      "Ġset": 883,
      "iness": 884,
      "Ġbeing": 885,
      "Ġread": 886,
      "gram": 887,
      "Ġmon": 888,
      "Ġinte": 889,
      "Ġ7": 890,
      "Ġinst": 891,
      "Ġday": 892,
      "velop": 893,
      "Ġbel": 894,
      "ices": 895,
      "ract": 896,
      "Ġpol": 897,
      "Ġhigh": 898,
      "alk": 899,
      "Ġeff": 900,
      "meric": 901,
      "io": 902,
      "ĠPro": 903,
      "Ġtake": 904,
      "any": 905,
      "Ġspec": 906,
      "rest": 907,
      "ank": 908,
      "ĠDe": 909,
      "Ġ10": 910,
      "Ġmin": 911,
      "alth": 912,
      "ĠBut": 913,
      "Ġfind": 914,
      "oun": 915,
      "Ġsur": 916,
      "way": 917,
      "ars": 918,
      "Ġinformation": 919,
      "pr": 920,
      "||": 921,
      "ince": 922,
      "Ġ8": 923,
      "Ġ&": 924,
      "Ġmem": 925,
      "ins": 926,
      "ĠAl": 927,
      "ax": 928,
      "Ġra": 929,
      "Ġbus": 930,
      "Ġsay": 931,
      "Ġpoint": 932,
      "Ġbr": 933,
      "Ġgoing": 934,
      "Ġop": 935,
      "Ġworld": 936,
      "Ġloc": 937,
      "ced": 938,
      "ollow": 939,
      "ually": 940,
      "ave": 941,
      "Ġreally": 942,
      "Ġthough": 943,
      "Ġexper": 944,
      "ex": 945,
      "ather": 946,
      "Ġfam": 947,
      "ah": 948,
      "âĢľ": 949,
      "Ġear": 950,
      "ivers": 951,
      "Ġteam": 952,
      "land": 953,
      "ng": 954,
      "ee": 955,
      "ces": 956,
      "Ġsub": 957,
      "self": 958,
      "Ġche": 959,
      "Ġcount": 960,
      "imes": 961,
      "Ġins": 962,
      "Ġwhile": 963,
      "Ġstill": 964,
      "ĠAmeric": 965,
      "ĠIf": 966,
      "Ġlead": 967,
      "Ġhand": 968,
      "Ġrun": 969,
      "atch": 970,
      "az": 971,
      "Ġthree": 972,
      "Ġcour": 973,
      "Ġdiffe": 974,
      "led": 975,
      "read": 976,
      "Ġinter": 977,
      "Ġav": 978,
      "Ġart": 979,
      "Ġsystem": 980,
      "ving": 981,
      "Ġrequ": 982,
      "Ġret": 983,
      "irect": 984,
      "Ġ9": 985,
      "view": 986,
      "Ġcar": 987,
      "Ġperson": 988,
      "We": 989,
      "ouse": 990,
      "ĠSh": 991,
      "Ġgr": 992,
      "ton": 993,
      "ives": 994,
      "Ġused": 995,
      "Ġchar": 996,
      "cept": 997,
      "Ġstate": 998,
      "roup": 999,
      "the": 1000,
      "ets": 1001,
      "Ġbest": 1002,
      "Ġhome": 1003,
      "gg": 1004,
      "Ġdevelop": 1005,
      "Ġed": 1006,
      "Ġsomet": 1007,
      "ĠAr": 1008,
      "Ġeach": 1009,
      "ters": 1010,
      "Ġser": 1011,
      "ittle": 1012,
      "akes": 1013,
      "Ġsim": 1014,
      "Ġnum": 1015,
      "ved": 1016,
      "ier": 1017,
      "Ġprogram": 1018,
      "ution": 1019,
      "ever": 1020,
      ",âĢĿ": 1021,
      "Ġgame": 1022,
      "Ġaround": 1023,
      "Ġsame": 1024,
      "Ġmed": 1025,
      "Ġsl": 1026,
      "ames": 1027,
      "Ġdisc": 1028,
      "ience": 1029,
      "Ġtrans": 1030,
      "vern": 1031,
      "ale": 1032,
      "ines": 1033,
      "ered": 1034,
      "oh": 1035,
      "ĠCl": 1036,
      "lease": 1037,
      "ween": 1038,
      "Ġlife": 1039,
      "riend": 1040,
      "Ġfollow": 1041,
      "Ġpost": 1042,
      "Ġmod": 1043,
      "Ġfound": 1044,
      "ute": 1045,
      "Ġchild": 1046,
      "Ġcur": 1047,
      "It": 1048,
      "000": 1049,
      "Ġboth": 1050,
      "Ġbo": 1051,
      "ists": 1052,
      "Ġmark": 1053,
      "Ġdet": 1054,
      "chn": 1055,
      "ash": 1056,
      "ctions": 1057,
      "Ġreal": 1058,
      "ness": 1059,
      "Ġvis": 1060,
      "uc": 1061,
      "ple": 1062,
      "unity": 1063,
      "Ġsign": 1064,
      "Ġdef": 1065,
      "ĠAs": 1066,
      "iet": 1067,
      "Ġcre": 1068,
      "line": 1069,
      "ene": 1070,
      "ĠFor": 1071,
      "ages": 1072,
      "Ġcare": 1073,
      "This": 1074,
      "Ġbook": 1075,
      "der": 1076,
      "Ġbetween": 1077,
      "Ġfew": 1078,
      "ĠThey": 1079,
      "cent": 1080,
      "min": 1081,
      "Ġexp": 1082,
      "Ġstr": 1083,
      "Ġsupport": 1084,
      "Ġbusiness": 1085,
      "Ġreport": 1086,
      "ient": 1087,
      "uth": 1088,
      "Ġlittle": 1089,
      "orn": 1090,
      "Ġcomple": 1091,
      "ense": 1092,
      "Ġprovid": 1093,
      "ield": 1094,
      "Ġrep": 1095,
      "Ġadv": 1096,
      "Ġgot": 1097,
      "Ġschool": 1098,
      "Ġsecond": 1099,
      "arm": 1100,
      "con": 1101,
      "ĠSe": 1102,
      "Ġhapp": 1103,
      "bers": 1104,
      "ention": 1105,
      "Ġdesign": 1106,
      "Ġfil": 1107,
      "Ġplace": 1108,
      "ize": 1109,
      "Ġlot": 1110,
      "oot": 1111,
      "Wh": 1112,
      "Ġtop": 1113,
      "Ġmonth": 1114,
      "ĠFr": 1115,
      "ĠLe": 1116,
      "ĠAd": 1117,
      "ves": 1118,
      "ized": 1119,
      "illion": 1120,
      "Ġfeel": 1121,
      "ished": 1122,
      "Ġgl": 1123,
      "Ġlar": 1124,
      "Ġi": 1125,
      "ug": 1126,
      "thing": 1127,
      "Ġgener": 1128,
      "ired": 1129,
      "ways": 1130,
      "ĠBl": 1131,
      "Ġput": 1132,
      "Ġform": 1133,
      "cer": 1134,
      "ants": 1135,
      "Ġter": 1136,
      "Ġduring": 1137,
      "Ġopen": 1138,
      "Ġthings": 1139,
      "Ġcle": 1140,
      "Ġ2012": 1141,
      "Ġcome": 1142,
      "Ġdifferent": 1143,
      "Ġanother": 1144,
      "Ġweek": 1145,
      "Ġnext": 1146,
      "Ġiss": 1147,
      "Ġbig": 1148,
      "ody": 1149,
      "Ġ--": 1150,
      "Ġmet": 1151,
      "Ġsk": 1152,
      "ital": 1153,
      "Ġhead": 1154,
      "Ġagainst": 1155,
      "Ġproduct": 1156,
      "Ġfr": 1157,
      "less": 1158,
      "Ġ'": 1159,
      "Ġfact": 1160,
      "Ġlove": 1161,
      "Ġlist": 1162,
      "Ġ12": 1163,
      "Ġpass": 1164,
      "Ġcr": 1165,
      "Ġcontin": 1166,
      "ailable": 1167,
      "ology": 1168,
      "ger": 1169,
      "ision": 1170,
      "Ġpur": 1171,
      "Ġdist": 1172,
      "Ġob": 1173,
      "Ġquest": 1174,
      "son": 1175,
      "Ġpublic": 1176,
      "Ġwin": 1177,
      "Ġfull": 1178,
      "Ġint": 1179,
      "Ġplan": 1180,
      "Ġtri": 1181,
      "Ġsince": 1182,
      "Ġmust": 1183,
      "atur": 1184,
      "Ġappro": 1185,
      "Ġsomething": 1186,
      "Ġfun": 1187,
      "Ġinterest": 1188,
      "ross": 1189,
      "Ġgroup": 1190,
      "Ġcent": 1191,
      "Ġfree": 1192,
      "Ġpartic": 1193,
      "Ġext": 1194,
      "ĠShe": 1195,
      "Ġ0": 1196,
      "Ġeas": 1197,
      "Ġbetter": 1198,
      "Ġtry": 1199,
      "Ġnever": 1200,
      "Ġincluding": 1201,
      "iversity": 1202,
      "Ġresp": 1203,
      "Ġfour": 1204,
      "Ġsays": 1205,
      "Ġref": 1206,
      "rist": 1207,
      "ature": 1208,
      "arn": 1209,
      "'re": 1210,
      "be": 1211,
      "ĠAll": 1212,
      "aj": 1213,
      "ik": 1214,
      "ically": 1215,
      "Ġpri": 1216,
      "Ġkeep": 1217,
      "Ġfriend": 1218,
      "ĠBe": 1219,
      "uss": 1220,
      "Ġrest": 1221,
      "reen": 1222,
      "10": 1223,
      "ared": 1224,
      "Ġmov": 1225,
      "ata": 1226,
      "ten": 1227,
      "Ġrece": 1228,
      "rence": 1229,
      "Ġprof": 1230,
      "Ġbro": 1231,
      "Ġstand": 1232,
      "'m": 1233,
      "Ġwithout": 1234,
      "Ġask": 1235,
      "ĠâĢĶ": 1236,
      "iving": 1237,
      "Ġcor": 1238,
      "Ġconf": 1239,
      "Ġhard": 1240,
      "Ġlaw": 1241,
      "Ġposs": 1242,
      "ism": 1243,
      "Ġimport": 1244,
      "oad": 1245,
      "Ġopp": 1246,
      "Ġallow": 1247,
      "ional": 1248,
      "ering": 1249,
      "ER": 1250,
      "gy": 1251,
      "Ġavailable": 1252,
      "Ġdirect": 1253,
      "Ġlet": 1254,
      "Ġsmall": 1255,
      "Ġresult": 1256,
      "Ġwom": 1257,
      "rand": 1258,
      "Ġproble": 1259,
      "att": 1260,
      "Ġprocess": 1261,
      "Ġ18": 1262,
      "ately": 1263,
      "Ġgovern": 1264,
      "ret": 1265,
      "ĠIs": 1266,
      "Ġtechn": 1267,
      ".,": 1268,
      "ĠSo": 1269,
      "ĠThere": 1270,
      "Ġhealth": 1271,
      "ird": 1272,
      "Ġseem": 1273,
      "Ġmight": 1274,
      "Ġold": 1275,
      "ĠCol": 1276,
      "Ġwr": 1277,
      "ards": 1278,
      "Ġalways": 1279,
      "Ġpat": 1280,
      "Ġmus": 1281,
      "ww": 1282,
      "ined": 1283,
      "Ġseason": 1284,
      "Ġ|": 1285,
      "ploy": 1286,
      "ok": 1287,
      "Ġdri": 1288,
      "Ġinf": 1289,
      "ĠPl": 1290,
      "Ġfamily": 1291,
      "ope": 1292,
      "ample": 1293,
      "Ġunt": 1294,
      "Ġnumber": 1295,
      "Ġorgan": 1296,
      "ality": 1297,
      "Ġclass": 1298,
      "Ġpower": 1299,
      "Ġusing": 1300,
      "ling": 1301,
      "ĠCon": 1302,
      "Ġbelie": 1303,
      "ertain": 1304,
      "ĠPh": 1305,
      "Ġ.": 1306,
      "ley": 1307,
      "ott": 1308,
      "oney": 1309,
      "Ġann": 1310,
      "rol": 1311,
      "ustom": 1312,
      "Ġ20": 1313,
      "ĠQ": 1314,
      "ission": 1315,
      "He": 1316,
      "ining": 1317,
      "Ġel": 1318,
      "ĠComm": 1319,
      "Ġperform": 1320,
      "ior": 1321,
      "--": 1322,
      "me": 1323,
      "pped": 1324,
      "Ġide": 1325,
      "Ġexpl": 1326,
      "Ġsol": 1327,
      "Ġval": 1328,
      "ohn": 1329,
      "âĢĶ": 1330,
      "ĠHow": 1331,
      "ably": 1332,
      "Ġ11": 1333,
      "ote": 1334,
      "ĠCent": 1335,
      "Ġmain": 1336,
      "Ġincre": 1337,
      "ann": 1338,
      "'ve": 1339,
      "ĠOn": 1340,
      "Ġdays": 1341,
      "osed": 1342,
      "Ġbuild": 1343,
      "iqu": 1344,
      "Ġturn": 1345,
      "ged": 1346,
      "ĠTe": 1347,
      "outh": 1348,
      "Ġsoc": 1349,
      "Ġvar": 1350,
      "ware": 1351,
      "ats": 1352,
      "Ġty": 1353,
      "br": 1354,
      "Ġless": 1355,
      "gin": 1356,
      "Ġsure": 1357,
      "Ġwater": 1358,
      "Ġeffect": 1359,
      "Ġnight": 1360,
      "uck": 1361,
      "ember": 1362,
      "ĠInd": 1363,
      "stand": 1364,
      "ĠEx": 1365,
      "tt": 1366,
      "Ġdel": 1367,
      "enn": 1368,
      "Ġgive": 1369,
      "Ġproject": 1370,
      "Ġcompany": 1371,
      "ĠThat": 1372,
      "ĠZ": 1373,
      "Ġpay": 1374,
      "Ġ15": 1375,
      "here": 1376,
      "ĠMay": 1377,
      "raph": 1378,
      "âĢ¦": 1379,
      "Ġlevel": 1380,
      "Ġtoday": 1381,
      "Ġbre": 1382,
      "Ġcurrent": 1383,
      "19": 1384,
      "Ġrecord": 1385,
      "Ġmarket": 1386,
      "ron": 1387,
      "ĠOr": 1388,
      "ccess": 1389,
      "els": 1390,
      "by": 1391,
      "Ġca": 1392,
      "ency": 1393,
      "Ġleg": 1394,
      "orth": 1395,
      "ently": 1396,
      "Ġpast": 1397,
      "Ġ[": 1398,
      "Ġmeet": 1399,
      "ĠMar": 1400,
      "ĠUS": 1401,
      "ases": 1402,
      "ator": 1403,
      "Ġcost": 1404,
      "Ġ2013": 1405,
      "med": 1406,
      "Ġoffic": 1407,
      "ted": 1408,
      "Ġuntil": 1409,
      "If": 1410,
      "tend": 1411,
      "Ġtest": 1412,
      "Ġdidn": 1413,
      "iver": 1414,
      "Ġrese": 1415,
      "Ġve": 1416,
      "ĠSp": 1417,
      "Ġleft": 1418,
      "pend": 1419,
      "Ġpos": 1420,
      "oint": 1421,
      "Ġview": 1422,
      "conom": 1423,
      "inal": 1424,
      "Ġhum": 1425,
      "ral": 1426,
      "Ġ199": 1427,
      "Ġjob": 1428,
      "Ġinvest": 1429,
      "Ġaway": 1430,
      "ney": 1431,
      "augh": 1432,
      "Ġservice": 1433,
      "Ġfac": 1434,
      "ĠUniversity": 1435,
      "ised": 1436,
      "Ġoper": 1437,
      "Ġhist": 1438,
      "Ġchildren": 1439,
      "ption": 1440,
      "Ġimportant": 1441,
      "ina": 1442,
      "lection": 1443,
      "Ġthing": 1444,
      "Ġpercent": 1445,
      "Ġsit": 1446,
      "Ġhour": 1447,
      "IN": 1448,
      "alf": 1449,
      "ury": 1450,
      "Ġprev": 1451,
      "Ġgrow": 1452,
      "Ġcase": 1453,
      "ead": 1454,
      "Ġprom": 1455,
      "ains": 1456,
      "arent": 1457,
      "ĠChrist": 1458,
      "ĠNo": 1459,
      "ĠRes": 1460,
      "ĠSc": 1461,
      "Ġdem": 1462,
      "Ġphot": 1463,
      "ium": 1464,
      "Ġbeh": 1465,
      "Ġbas": 1466,
      "Ġable": 1467,
      "Ġorder": 1468,
      "ĠJohn": 1469,
      "pping": 1470,
      "Ġest": 1471,
      "30": 1472,
      "Ġnear": 1473,
      "ured": 1474,
      "Ġsite": 1475,
      "urs": 1476,
      "ĠAmerican": 1477,
      "Ġstudents": 1478,
      "oci": 1479,
      "Ġtell": 1480,
      "Ġgovernment": 1481,
      "ived": 1482,
      "atter": 1483,
      "une": 1484,
      "ajor": 1485,
      "Ġpresent": 1486,
      "Ġcourse": 1487,
      "Ġarea": 1488,
      "ON": 1489,
      "St": 1490,
      "12": 1491,
      "Ġmar": 1492,
      "Ġexpect": 1493,
      "ges": 1494,
      "ified": 1495,
      "iting": 1496,
      "50": 1497,
      "Ġcustom": 1498,
      "uthor": 1499,
      "co": 1500,
      "Ġdata": 1501,
      "Ġaff": 1502,
      "Ġpop": 1503,
      "work": 1504,
      "Ġname": 1505,
      "ration": 1506,
      "Ġlight": 1507,
      "Ġword": 1508,
      "ane": 1509,
      "Ġline": 1510,
      "Ġfar": 1511,
      "Ġmillion": 1512,
      "Ġexperience": 1513,
      "Ġ2011": 1514,
      "Ġspecial": 1515,
      "Ġnews": 1516,
      "let": 1517,
      "utes": 1518,
      "Ġsing": 1519,
      "Ġcap": 1520,
      "Ġlocal": 1521,
      "ps": 1522,
      "Ġdr": 1523,
      "Ġmaking": 1524,
      "iven": 1525,
      "Ġtalk": 1526,
      "!!": 1527,
      "ama": 1528,
      "Ġsal": 1529,
      "Ġwithin": 1530,
      "ruct": 1531,
      "'ll": 1532,
      "mber": 1533,
      "ories": 1534,
      "Ġfood": 1535,
      "Ġkind": 1536,
      "ivid": 1537,
      "ĠCar": 1538,
      "iron": 1539,
      "of": 1540,
      "Ġtru": 1541,
      "por": 1542,
      "Ġdep": 1543,
      "ider": 1544,
      "Ġwhy": 1545,
      "Ġaccess": 1546,
      "ording": 1547,
      "Ġdra": 1548,
      "ready": 1549,
      "Ġchange": 1550,
      "Ġever": 1551,
      "Ġchang": 1552,
      "eb": 1553,
      "Ġenough": 1554,
      "Ġcame": 1555,
      "Ġlarge": 1556,
      "icle": 1557,
      "Ġair": 1558,
      "Ġcamp": 1559,
      "Ġcalled": 1560,
      "ĠCo": 1561,
      "Ġtimes": 1562,
      "Ġequ": 1563,
      "Ġmoney": 1564,
      "ored": 1565,
      "ids": 1566,
      "Ġconst": 1567,
      "aim": 1568,
      "ries": 1569,
      "ubl": 1570,
      "ĠState": 1571,
      "ream": 1572,
      "itions": 1573,
      "ĠTr": 1574,
      "Ġprovide": 1575,
      "You": 1576,
      "ĠFl": 1577,
      "Ġaddition": 1578,
      "Ġevent": 1579,
      "Ġworking": 1580,
      "uff": 1581,
      "Ġmembers": 1582,
      "Ġroom": 1583,
      "aring": 1584,
      "Ġstory": 1585,
      "ization": 1586,
      "Ġvide": 1587,
      "Ġeng": 1588,
      "ball": 1589,
      "ows": 1590,
      "artment": 1591,
      "ĠAt": 1592,
      "Ġleast": 1593,
      "ither": 1594,
      "ery": 1595,
      "Ġcountry": 1596,
      "ising": 1597,
      "Ġlooking": 1598,
      "Ġmil": 1599,
      "Ġmen": 1600,
      "aff": 1601,
      "As": 1602,
      "Ġsw": 1603,
      "AT": 1604,
      "ox": 1605,
      "Ġhaving": 1606,
      "ĠRep": 1607,
      "Ġcommunity": 1608,
      "ained": 1609,
      "Ġsever": 1610,
      "ĠâĢĺ": 1611,
      "Ġ30": 1612,
      "Ġalready": 1613,
      "ES": 1614,
      "ode": 1615,
      "Ġmove": 1616,
      "iety": 1617,
      "iday": 1618,
      "omm": 1619,
      "Ġprote": 1620,
      "irl": 1621,
      "iam": 1622,
      "Ġdone": 1623,
      "Ġeconom": 1624,
      "Ġintern": 1625,
      "Ġshort": 1626,
      "ots": 1627,
      "ush": 1628,
      "uro": 1629,
      "Ġbit": 1630,
      "ference": 1631,
      "ony": 1632,
      "Ġproper": 1633,
      "Ġpract": 1634,
      "11": 1635,
      "Ġemploy": 1636,
      "Ġsuccess": 1637,
      "ĠMan": 1638,
      "Ġside": 1639,
      "Ġwent": 1640,
      "Ġtoget": 1641,
      "Ġtogether": 1642,
      "Ġtook": 1643,
      "Ġmusic": 1644,
      "ĠTo": 1645,
      "Ġmajor": 1646,
      "eral": 1647,
      "aster": 1648,
      "ying": 1649,
      "ability": 1650,
      "side": 1651,
      "aut": 1652,
      "Ġseveral": 1653,
      "For": 1654,
      "AN": 1655,
      "Ġthought": 1656,
      "joy": 1657,
      "ĠWhat": 1658,
      "Ġfund": 1659,
      "Ġapplic": 1660,
      "Ġwrit": 1661,
      "AR": 1662,
      "Ġalong": 1663,
      "Ġinclude": 1664,
      "Ġimpro": 1665,
      "Ġwon": 1666,
      "for": 1667,
      "20": 1668,
      "sh": 1669,
      "ern": 1670,
      "Ġfive": 1671,
      "ills": 1672,
      "Ġactiv": 1673,
      "idd": 1674,
      "Ġcomplete": 1675,
      "ials": 1676,
      "Ġdev": 1677,
      "Ġpa": 1678,
      "ĠMy": 1679,
      "Ġreturn": 1680,
      "Ġonline": 1681,
      "Ġservices": 1682,
      "Ġocc": 1683,
      "Ġtold": 1684,
      "ĠWhen": 1685,
      "ĠGod": 1686,
      "Ġoften": 1687,
      "Ġwomen": 1688,
      "use": 1689,
      "Ġes": 1690,
      "Ġdoing": 1691,
      "Ġdoesn": 1692,
      "Ġmean": 1693,
      "ober": 1694,
      "ians": 1695,
      "avor": 1696,
      "Ġcou": 1697,
      "Ġ16": 1698,
      "ris": 1699,
      "ĠUnited": 1700,
      "Ġelect": 1701,
      "Ġbecome": 1702,
      "Ġfeat": 1703,
      "most": 1704,
      "orts": 1705,
      "app": 1706,
      "Ġgetting": 1707,
      "Ġcontrol": 1708,
      "OR": 1709,
      "Ġfollowing": 1710,
      "ients": 1711,
      "acy": 1712,
      "ĠYork": 1713,
      "Ġtax": 1714,
      "used": 1715,
      "Ġcond": 1716,
      "Ġcity": 1717,
      "ands": 1718,
      "Ġnon": 1719,
      "Ġeduc": 1720,
      "Ġago": 1721,
      "Ġcut": 1722,
      "Ġunderstand": 1723,
      "Ġfore": 1724,
      "Ġyoung": 1725,
      "ĠEng": 1726,
      "ched": 1727,
      "Ġhold": 1728,
      "ĠSte": 1729,
      "rop": 1730,
      "lege": 1731,
      "Ġmakes": 1732,
      "ĠÂ": 1733,
      "crib": 1734,
      "ĠCount": 1735,
      "Ġ2010": 1736,
      "atic": 1737,
      "Ġ14": 1738,
      "aps": 1739,
      "oice": 1740,
      "Ġtrad": 1741,
      "Ġearly": 1742,
      "Ġreview": 1743,
      "ĠIntern": 1744,
      "Ġothers": 1745,
      "Ġprofess": 1746,
      "Ġwebs": 1747,
      "Ġpolit": 1748,
      "Ġlive": 1749,
      "Ġresearch": 1750,
      "Ġlearn": 1751,
      "ides": 1752,
      "Ġlater": 1753,
      "Ġyet": 1754,
      "ĠBro": 1755,
      "fer": 1756,
      "agement": 1757,
      "uture": 1758,
      "orld": 1759,
      "ances": 1760,
      "viron": 1761,
      "Ġcertain": 1762,
      "ĠApp": 1763,
      "ĠMed": 1764,
      "Ġindust": 1765,
      "Ġlim": 1766,
      "Ġvisit": 1767,
      "ĠCan": 1768,
      "Ġcharact": 1769,
      "rew": 1770,
      "Ġdeal": 1771,
      "not": 1772,
      "Ġhappen": 1773,
      "ĠSu": 1774,
      "ourn": 1775,
      "Ġpoints": 1776,
      "ring": 1777,
      "ĠMc": 1778,
      "Ġonce": 1779,
      "ister": 1780,
      "Ġorig": 1781,
      "Ġhouse": 1782,
      "Ġnet": 1783,
      "aken": 1784,
      "allen": 1785,
      "Ġ13": 1786,
      "Ġwar": 1787,
      "Ġinvol": 1788,
      "Ġgames": 1789,
      "200": 1790,
      "Ġvers": 1791,
      "itive": 1792,
      "But": 1793,
      "reet": 1794,
      "And": 1795,
      "What": 1796,
      "ones": 1797,
      "Ġpossible": 1798,
      "Ġhalf": 1799,
      "lement": 1800,
      "Ġcheck": 1801,
      "Ġ17": 1802,
      "ividual": 1803,
      "ination": 1804,
      "Ġenjoy": 1805,
      "Ġbased": 1806,
      "resent": 1807,
      "Ġpot": 1808,
      "rodu": 1809,
      "rap": 1810,
      "ĠAm": 1811,
      "ler": 1812,
      "Ġactually": 1813,
      "Ġhot": 1814,
      "Ġwa": 1815,
      "enef": 1816,
      "Ġcreat": 1817,
      "Ġquestion": 1818,
      "ĠAss": 1819,
      "Ġappear": 1820,
      "Ġclear": 1821,
      "Ġreason": 1822,
      "ĠWith": 1823,
      "Ġce": 1824,
      "Ġtre": 1825,
      "Ġpar": 1826,
      "wh": 1827,
      "Ġtreat": 1828,
      "Ġemail": 1829,
      "201": 1830,
      "Ġla": 1831,
      "oon": 1832,
      "fect": 1833,
      "Ġaccount": 1834,
      "ĠCal": 1835,
      "Ġprob": 1836,
      "Ġmonths": 1837,
      "Ġmater": 1838,
      "There": 1839,
      "Ġproblem": 1840,
      "ging": 1841,
      "Ġfoc": 1842,
      "Ġpage": 1843,
      "Ġfield": 1844,
      "Ġstarted": 1845,
      "icy": 1846,
      "rict": 1847,
      "Ġcompet": 1848,
      "Ġmeans": 1849,
      "ĠCity": 1850,
      "Ġdiscuss": 1851,
      "Ġey": 1852,
      "osp": 1853,
      "An": 1854,
      "ille": 1855,
      "Ġmom": 1856,
      "Ġauthor": 1857,
      "inc": 1858,
      "ĠBr": 1859,
      "Ġlow": 1860,
      "book": 1861,
      "ape": 1862,
      "ump": 1863,
      "Ġopport": 1864,
      "ensive": 1865,
      "ĠSy": 1866,
      "fort": 1867,
      "ential": 1868,
      "ource": 1869,
      "Ġneeds": 1870,
      "Ġparticular": 1871,
      "ĠX": 1872,
      "Ġpain": 1873,
      "Ġfriends": 1874,
      "Ġclose": 1875,
      "vironment": 1876,
      "Ġsum": 1877,
      "Ġgiven": 1878,
      "yle": 1879,
      "urch": 1880,
      "org": 1881,
      "Ġopt": 1882,
      "ĠNational": 1883,
      "Ġsix": 1884,
      "ograph": 1885,
      "ued": 1886,
      "Ġminutes": 1887,
      "sw": 1888,
      "Ġseen": 1889,
      "Ġvideo": 1890,
      "Ġstrong": 1891,
      "Ġfuture": 1892,
      "lev": 1893,
      "ĠPres": 1894,
      "hers": 1895,
      "itor": 1896,
      "wards": 1897,
      "Ġdetail": 1898,
      "idence": 1899,
      "ully": 1900,
      "Ġdevelopment": 1901,
      "ĠJan": 1902,
      "Ġsoft": 1903,
      "Ġbody": 1904,
      "Ġmor": 1905,
      "Ġpress": 1906,
      "lish": 1907,
      "Ġindividual": 1908,
      "Ġcontact": 1909,
      "Ġsound": 1910,
      "urity": 1911,
      "oard": 1912,
      "ĠEn": 1913,
      "de": 1914,
      "iously": 1915,
      "On": 1916,
      "Ġmind": 1917,
      "Ġaut": 1918,
      "aces": 1919,
      "anks": 1920,
      "unch": 1921,
      "Ġquick": 1922,
      "Ġblog": 1923,
      "ights": 1924,
      "illed": 1925,
      "Ġcomb": 1926,
      "Ġhours": 1927,
      "Ġprop": 1928,
      ".)": 1929,
      "urther": 1930,
      "Ġbenef": 1931,
      "Ġhuman": 1932,
      "Ġbelieve": 1933,
      "verage": 1934,
      "ique": 1935,
      "Ġacross": 1936,
      "Ġworks": 1937,
      "par": 1938,
      "ĠCenter": 1939,
      "Ġbring": 1940,
      "Ġoffer": 1941,
      "ĠNe": 1942,
      "ĠStates": 1943,
      "Ġeasy": 1944,
      "Ġcomes": 1945,
      "EN": 1946,
      "back": 1947,
      "ĠGu": 1948,
      "nes": 1949,
      "Ġmult": 1950,
      "Ġcommun": 1951,
      "ources": 1952,
      "though": 1953,
      "Ġclaim": 1954,
      "AS": 1955,
      "Ġanything": 1956,
      "ffic": 1957,
      "Ġhope": 1958,
      "Ġproducts": 1959,
      "Ġexample": 1960,
      "__": 1961,
      "Ġpriv": 1962,
      "cially": 1963,
      "oor": 1964,
      "Ġhistory": 1965,
      "Ġthird": 1966,
      "Ġwhether": 1967,
      "over": 1968,
      "ster": 1969,
      "year": 1970,
      "ned": 1971,
      "ches": 1972,
      "opy": 1973,
      "Ġbegin": 1974,
      "Ġsocial": 1975,
      "Ġaddress": 1976,
      "Ġpersonal": 1977,
      "Ġtot": 1978,
      "Ġamong": 1979,
      "Ġredu": 1980,
      "ips": 1981,
      "load": 1982,
      "Ġvol": 1983,
      "Ġwebsite": 1984,
      "ĠServ": 1985,
      "irc": 1986,
      "ided": 1987,
      "Ġknown": 1988,
      "ĠEd": 1989,
      "ulation": 1990,
      "Ġwhole": 1991,
      "ĠOne": 1992,
      "Ġ25": 1993,
      "ĠPr": 1994,
      "my": 1995,
      "iod": 1996,
      "Ch": 1997,
      "Ġ2009": 1998,
      "go": 1999,
      "ift": 2000,
      "ĠGr": 2001,
      "Ġdeb": 2002,
      "Ġhig": 2003,
      "15": 2004,
      "//": 2005,
      "Ġbad": 2006,
      "ĠMr": 2007,
      "ĠTw": 2008,
      "Ġheart": 2009,
      "Ġfilm": 2010,
      "play": 2011,
      "Ġseries": 2012,
      "Ġjo": 2013,
      "ences": 2014,
      "Ġface": 2015,
      "Ġquality": 2016,
      "Ġwalk": 2017,
      "ĠDep": 2018,
      "ggest": 2019,
      "Ġpret": 2020,
      "AL": 2021,
      "ators": 2022,
      "Ġconcer": 2023,
      "cial": 2024,
      "ĠSchool": 2025,
      "Ġpack": 2026,
      "Ġident": 2027,
      "Ġshare": 2028,
      "ĠWill": 2029,
      "nect": 2030,
      "ners": 2031,
      "itted": 2032,
      "Ġ...": 2033,
      "ural": 2034,
      "now": 2035,
      "Ġkey": 2036,
      "ĠCounty": 2037,
      "Ġeither": 2038,
      "Ġanal": 2039,
      "ĠNot": 2040,
      "ĠMe": 2041,
      "Ġ24": 2042,
      "ocu": 2043,
      "Ġspecific": 2044,
      "ilities": 2045,
      "ĠOb": 2046,
      "ilar": 2047,
      "Ġris": 2048,
      "ĠEuro": 2049,
      "pro": 2050,
      "Ġasked": 2051,
      "Ġsent": 2052,
      "Ġbreak": 2053,
      "ai": 2054,
      "Ġfre": 2055,
      "lling": 2056,
      "Ġdou": 2057,
      "Ġitem": 2058,
      "Ġenc": 2059,
      "Ġpie": 2060,
      "Ġant": 2061,
      "Ġmiss": 2062,
      "ĠHar": 2063,
      "Ġalmost": 2064,
      "Ġsomeone": 2065,
      "Ġet": 2066,
      "ĠWorld": 2067,
      "ctor": 2068,
      "ĠMin": 2069,
      "Ġmess": 2070,
      "elt": 2071,
      "lf": 2072,
      "Ġpubl": 2073,
      "Ġfront": 2074,
      "ateg": 2075,
      "Ġwond": 2076,
      "Ġrespons": 2077,
      "Ġpick": 2078,
      "Ġmanag": 2079,
      "Ġbelow": 2080,
      "Ġstay": 2081,
      "ĠGe": 2082,
      "Ġabove": 2083,
      "selves": 2084,
      "Ġtrying": 2085,
      "Ġtem": 2086,
      "pecially": 2087,
      "cri": 2088,
      "ĠSec": 2089,
      "ĠCont": 2090,
      "Ġfavor": 2091,
      "Ġpretty": 2092,
      "ĠNorth": 2093,
      "arter": 2094,
      "Ġtaking": 2095,
      "Ġvi": 2096,
      "Ġcrit": 2097,
      "abor": 2098,
      "Ġsingle": 2099,
      "Ġsuper": 2100,
      "Ġsuggest": 2101,
      "Ġprobably": 2102,
      "ĠDo": 2103,
      "ify": 2104,
      "mb": 2105,
      "://": 2106,
      "Ġplease": 2107,
      "Ġeverything": 2108,
      "aining": 2109,
      "Ġcreate": 2110,
      "ibr": 2111,
      "umb": 2112,
      "Re": 2113,
      "IS": 2114,
      "Ġwatch": 2115,
      "Ġissues": 2116,
      "Ġannoun": 2117,
      "Ġ/": 2118,
      "Ġage": 2119,
      "ĠComp": 2120,
      "Ġbar": 2121,
      "ĠBar": 2122,
      "room": 2123,
      "ĠThese": 2124,
      "ief": 2125,
      "oe": 2126,
      "stit": 2127,
      "irt": 2128,
      "Ġstep": 2129,
      "Ġste": 2130,
      "ially": 2131,
      "Ġperfect": 2132,
      "ried": 2133,
      "Ġhit": 2134,
      "Ġissue": 2135,
      "pril": 2136,
      "utions": 2137,
      "Ġbeaut": 2138,
      "Ġener": 2139,
      "ibility": 2140,
      "Ġcomput": 2141,
      "Ġcompan": 2142,
      "minist": 2143,
      "ttp": 2144,
      "Ġtaken": 2145,
      "So": 2146,
      "Ġidea": 2147,
      "IT": 2148,
      "Ġmag": 2149,
      "Ġwanted": 2150,
      "af": 2151,
      "ED": 2152,
      "rie": 2153,
      "Ġgirl": 2154,
      "fully": 2155,
      "ilt": 2156,
      "Ġwind": 2157,
      "ĠAmerica": 2158,
      "Ġpict": 2159,
      "right": 2160,
      "Ġ2008": 2161,
      "Ġport": 2162,
      "Ġstudy": 2163,
      "Ġchallen": 2164,
      "ĠSouth": 2165,
      "Ġcoming": 2166,
      "Ġfail": 2167,
      "ederal": 2168,
      "ĠChe": 2169,
      "yn": 2170,
      "dd": 2171,
      "13": 2172,
      "Ġmedia": 2173,
      "hod": 2174,
      "Ġ100": 2175,
      "When": 2176,
      "Ġcred": 2177,
      "Ġelse": 2178,
      "Ġbuy": 2179,
      "Ġtyp": 2180,
      "25": 2181,
      "Ġland": 2182,
      "Ġadded": 2183,
      "Ġentire": 2184,
      "Ġfall": 2185,
      "yl": 2186,
      "ogn": 2187,
      "Ġheld": 2188,
      "'d": 2189,
      "Ġz": 2190,
      "ashing": 2191,
      "Ġrequire": 2192,
      "imate": 2193,
      "nding": 2194,
      "ĠDav": 2195,
      "Ġquestions": 2196,
      "ply": 2197,
      "irm": 2198,
      "atural": 2199,
      "gu": 2200,
      "time": 2201,
      "ĠHis": 2202,
      "ison": 2203,
      "ror": 2204,
      "Ġstore": 2205,
      "itch": 2206,
      "ung": 2207,
      "gress": 2208,
      "iber": 2209,
      "isc": 2210,
      "rain": 2211,
      "gest": 2212,
      "Ġperiod": 2213,
      "ĠGo": 2214,
      "Ġfoot": 2215,
      "Ġrather": 2216,
      "Ġindustry": 2217,
      "ĠPer": 2218,
      "Ġmot": 2219,
      "uation": 2220,
      "Ġquite": 2221,
      "ague": 2222,
      "ĠPresident": 2223,
      "Ġpurch": 2224,
      "Ġexc": 2225,
      "Ġcult": 2226,
      "Ġcompl": 2227,
      "Ġdeter": 2228,
      "fic": 2229,
      "ops": 2230,
      "....": 2231,
      "Ġparent": 2232,
      "Ġeveryone": 2233,
      "Ġaccording": 2234,
      "Ġnothing": 2235,
      "ĠPe": 2236,
      "Ġparticip": 2237,
      "Ġphys": 2238,
      "ĠTH": 2239,
      "ole": 2240,
      "Ġ:": 2241,
      "ĠEurope": 2242,
      "ĠSm": 2243,
      "Ġfinal": 2244,
      "aur": 2245,
      "Ġaud": 2246,
      "Ġball": 2247,
      "Ġbehind": 2248,
      "Ġer": 2249,
      "Ġresults": 2250,
      "ĠJu": 2251,
      "Ġstaff": 2252,
      "ask": 2253,
      "Ġsearch": 2254,
      "eter": 2255,
      "aturday": 2256,
      "oose": 2257,
      "Ġhost": 2258,
      "Ġenvironment": 2259,
      "off": 2260,
      "itting": 2261,
      "duct": 2262,
      "ancial": 2263,
      "IC": 2264,
      "Ġcourt": 2265,
      "Ġrepl": 2266,
      "Ġrepresent": 2267,
      "18": 2268,
      "inks": 2269,
      "Ġfurther": 2270,
      "uary": 2271,
      "Ġhon": 2272,
      "reg": 2273,
      "itten": 2274,
      "resh": 2275,
      "Ġamount": 2276,
      "ĠAfter": 2277,
      "Ġformer": 2278,
      "ĠDr": 2279,
      "ĠCor": 2280,
      "Ġperformance": 2281,
      "ĠHowever": 2282,
      "Ġ198": 2283,
      "Ġred": 2284,
      "aced": 2285,
      "Ġtrack": 2286,
      "Ġprice": 2287,
      "ili": 2288,
      "Ġdeath": 2289,
      "ples": 2290,
      "ĠOct": 2291,
      "Ġcontent": 2292,
      "che": 2293,
      "ĠMarch": 2294,
      "ĠAf": 2295,
      "ĠJune": 2296,
      "Ġrelations": 2297,
      "Ġoffice": 2298,
      "Ġplayers": 2299,
      "Ġseems": 2300,
      "Ġmeas": 2301,
      "roll": 2302,
      "Ġattack": 2303,
      "asing": 2304,
      "Ġconsider": 2305,
      "Ġbuilding": 2306,
      "Ġhowever": 2307,
      "gth": 2308,
      "Ġfire": 2309,
      "Ġenergy": 2310,
      "Ġisn": 2311,
      "Ġdocu": 2312,
      "Ġ50": 2313,
      "ĠFeb": 2314,
      "Ġcontinue": 2315,
      "Ġsoon": 2316,
      "Ġmember": 2317,
      "Ġtechnology": 2318,
      "mit": 2319,
      "Ġblack": 2320,
      "Ġdi": 2321,
      "empt": 2322,
      "Ġcompanies": 2323,
      "How": 2324,
      "Ġposition": 2325,
      "aul": 2326,
      "14": 2327,
      "Ġlikely": 2328,
      "Al": 2329,
      "na": 2330,
      "ocr": 2331,
      "Ġaction": 2332,
      "head": 2333,
      "ĠJust": 2334,
      "ĠPol": 2335,
      "Ġespecially": 2336,
      "To": 2337,
      "ĠWest": 2338,
      "Ġcommon": 2339,
      "Ġspace": 2340,
      "vert": 2341,
      "val": 2342,
      "Ġhom": 2343,
      "Ġweeks": 2344,
      "ees": 2345,
      "Ġnational": 2346,
      "Ġtit": 2347,
      "rug": 2348,
      "Ġrecomm": 2349,
      "Ġdue": 2350,
      "AC": 2351,
      "RE": 2352,
      "leased": 2353,
      "ĠPart": 2354,
      "Ġtravel": 2355,
      "Ġrecent": 2356,
      "ĠHouse": 2357,
      "Ġrecommend": 2358,
      "Ġrights": 2359,
      "ĠQu": 2360,
      "Ġproblems": 2361,
      "ites": 2362,
      "Ġfocus": 2363,
      "Ġupon": 2364,
      "16": 2365,
      "ĠPM": 2366,
      "icro": 2367,
      "iff": 2368,
      "Ġtou": 2369,
      "Ġtool": 2370,
      "Ġsex": 2371,
      "Ġlink": 2372,
      "Ġstat": 2373,
      "Ġground": 2374,
      "Ġpresident": 2375,
      "Ġnecess": 2376,
      "ĠAug": 2377,
      "Ġrunning": 2378,
      "Ġansw": 2379,
      "Ġgeneral": 2380,
      "pper": 2381,
      "Ġsubject": 2382,
      "Ġagree": 2383,
      "Ġcharacter": 2384,
      "Ġfeatures": 2385,
      "Ġneeded": 2386,
      "ĠMich": 2387,
      "ounc": 2388,
      "ĠFriday": 2389,
      "Ġparty": 2390,
      "Ġreceived": 2391,
      "mp": 2392,
      "Ġprovided": 2393,
      "obal": 2394,
      "ume": 2395,
      "ively": 2396,
      "angu": 2397,
      "ficult": 2398,
      "Ġtext": 2399,
      "Ġexist": 2400,
      "olution": 2401,
      "cell": 2402,
      "Ġforward": 2403,
      "amer": 2404,
      "ĠPark": 2405,
      "ĠKe": 2406,
      "Ġwords": 2407,
      "ental": 2408,
      "amed": 2409,
      "Ġlate": 2410,
      "Ġmatter": 2411,
      "Ġfig": 2412,
      "Ġevents": 2413,
      "Ġareas": 2414,
      "raft": 2415,
      "ĠEl": 2416,
      "ruction": 2417,
      "Ġvalue": 2418,
      "lex": 2419,
      "ĠApril": 2420,
      "Ġaccept": 2421,
      "Ġinj": 2422,
      "unday": 2423,
      "Ġcal": 2424,
      "Ġupd": 2425,
      "ires": 2426,
      "Ġsong": 2427,
      "reme": 2428,
      "aching": 2429,
      "ĠAct": 2430,
      "Ġroad": 2431,
      "Ġnice": 2432,
      "bor": 2433,
      "itte": 2434,
      "oph": 2435,
      "Ġsaw": 2436,
      "oved": 2437,
      "Ġ#": 2438,
      "ĠWar": 2439,
      "Ġcell": 2440,
      "ĠGl": 2441,
      "ĠDepartment": 2442,
      "Ġtrue": 2443,
      "Ġrad": 2444,
      "Ġarticle": 2445,
      "Ġdam": 2446,
      "Ġanyone": 2447,
      "ledge": 2448,
      "ĠCour": 2449,
      "Ġabs": 2450,
      "Ġsignific": 2451,
      "Ġweb": 2452,
      "ĠSept": 2453,
      "Ġcouple": 2454,
      "onday": 2455,
      "Ġdifficult": 2456,
      "ze": 2457,
      "iddle": 2458,
      "Ġinit": 2459,
      "ĠAg": 2460,
      "eds": 2461,
      "Ġlog": 2462,
      "gle": 2463,
      "Ġrespect": 2464,
      "Ġbase": 2465,
      "Ġ21": 2466,
      "Ġoffers": 2467,
      "icated": 2468,
      "Ġ22": 2469,
      "come": 2470,
      "iter": 2471,
      "ival": 2472,
      "Ġimprove": 2473,
      "ĠNews": 2474,
      "aign": 2475,
      "Ġoutside": 2476,
      "Ġprovides": 2477,
      "ĠObama": 2478,
      "Ġrange": 2479,
      "lebr": 2480,
      "ĠMark": 2481,
      "ĠAb": 2482,
      "Ġsimilar": 2483,
      "Ġeducation": 2484,
      "Ġpolitical": 2485,
      "Ġshows": 2486,
      "Ġincludes": 2487,
      "ST": 2488,
      "ules": 2489,
      "Ġap": 2490,
      "Ġstri": 2491,
      "Ġvict": 2492,
      "OU": 2493,
      "Ġtraining": 2494,
      "Ġswe": 2495,
      "Ġrequired": 2496,
      "Ġassist": 2497,
      "ĠDes": 2498,
      "ino": 2499,
      "ĠHer": 2500,
      "Ġviol": 2501,
      "Ġsimply": 2502,
      "Ġgrad": 2503,
      "Ġversion": 2504,
      "Ġplaying": 2505,
      "earch": 2506,
      "Ġrole": 2507,
      "ude": 2508,
      "Ġtown": 2509,
      "ashington": 2510,
      "sc": 2511,
      "ĠSaturday": 2512,
      "ĠDay": 2513,
      "Ġrecently": 2514,
      "Ġdescrib": 2515,
      "vent": 2516,
      "cle": 2517,
      "Ġcannot": 2518,
      "eth": 2519,
      "ĠStud": 2520,
      "60": 2521,
      "medi": 2522,
      "Ġkids": 2523,
      "ĠNow": 2524,
      "Ġprep": 2525,
      "Ġcard": 2526,
      "Ġlost": 2527,
      "Ph": 2528,
      "ication": 2529,
      "lu": 2530,
      "âĢĵ": 2531,
      "Ġcirc": 2532,
      "itional": 2533,
      "Ġtakes": 2534,
      "ĠInc": 2535,
      "Ġclean": 2536,
      "Ġboard": 2537,
      "Ġoriginal": 2538,
      "Ġconsum": 2539,
      "Ġprotect": 2540,
      "ĠAust": 2541,
      "Ġprograms": 2542,
      "Ġinstall": 2543,
      "Ġself": 2544,
      "17": 2545,
      "ouncil": 2546,
      "clus": 2547,
      "Ġattend": 2548,
      "ese": 2549,
      "Ġcontrib": 2550,
      "Ġstop": 2551,
      "Ġtype": 2552,
      "fact": 2553,
      "Ġjud": 2554,
      "Ġsimple": 2555,
      "Ġloss": 2556,
      "ĠSen": 2557,
      "ables": 2558,
      "Ġvot": 2559,
      "Ġestab": 2560,
      "Ġhttp": 2561,
      "ournal": 2562,
      "Ġmorning": 2563,
      "iful": 2564,
      "ishing": 2565,
      "Ġplayed": 2566,
      "Ġtotal": 2567,
      "overed": 2568,
      "hib": 2569,
      "ĠSpe": 2570,
      "Ġcomment": 2571,
      "ĠBy": 2572,
      "OT": 2573,
      "uge": 2574,
      "ĠHigh": 2575,
      "Ġrecogn": 2576,
      "hel": 2577,
      "Ġmethod": 2578,
      "ĠMore": 2579,
      "oid": 2580,
      "Ġmanagement": 2581,
      "Ġwasn": 2582,
      "ĠJuly": 2583,
      "Ġwhite": 2584,
      "Ġliving": 2585,
      "ĠAM": 2586,
      "Ġcover": 2587,
      "Ġoil": 2588,
      "Ġhy": 2589,
      "Ġpolice": 2590,
      "Ġleaders": 2591,
      "ests": 2592,
      "Ġinde": 2593,
      "ĠAssoci": 2594,
      "Ġanim": 2595,
      "aker": 2596,
      "ĠTV": 2597,
      "attle": 2598,
      "Ġchanges": 2599,
      "face": 2600,
      "like": 2601,
      "Ġways": 2602,
      "Ġgoal": 2603,
      "Ġdig": 2604,
      "ovember": 2605,
      "ada": 2606,
      "Ġdefe": 2607,
      "ecut": 2608,
      "Ġselect": 2609,
      "Ġnetwork": 2610,
      "ification": 2611,
      "Ġbott": 2612,
      "Ġinn": 2613,
      "ety": 2614,
      "oes": 2615,
      "ĠOff": 2616,
      "Ġcareer": 2617,
      "Ġrisk": 2618,
      "ĠCalif": 2619,
      "Ġsense": 2620,
      "Ġcook": 2621,
      "ĠSoc": 2622,
      "Ġpolicy": 2623,
      "oura": 2624,
      "chie": 2625,
      "Ġ2007": 2626,
      "Ġassoci": 2627,
      "lt": 2628,
      "Ġvarious": 2629,
      "Ġmeeting": 2630,
      "Ġ23": 2631,
      "itary": 2632,
      "ĠYour": 2633,
      "uesday": 2634,
      "ached": 2635,
      "Ġleave": 2636,
      "Ġbegan": 2637,
      "ursday": 2638,
      "aily": 2639,
      "Ġwide": 2640,
      "My": 2641,
      "Ġsize": 2642,
      "Ġphone": 2643,
      "atest": 2644,
      "Ġsignificant": 2645,
      "erc": 2646,
      "Ġincrease": 2647,
      "ael": 2648,
      "Ġdom": 2649,
      "ams": 2650,
      "Ġsecurity": 2651,
      "Ġdecision": 2652,
      "obile": 2653,
      "ĠOur": 2654,
      "ĠSan": 2655,
      "Ġill": 2656,
      "ming": 2657,
      "Ġthemselves": 2658,
      "idge": 2659,
      "40": 2660,
      "cast": 2661,
      "ĠWed": 2662,
      "Ġcontract": 2663,
      "Ġwonder": 2664,
      "hern": 2665,
      "anced": 2666,
      "Ġens": 2667,
      "arl": 2668,
      "Ġshall": 2669,
      "Ġdest": 2670,
      "Ġtour": 2671,
      "cember": 2672,
      "ĠSunday": 2673,
      "Ġregard": 2674,
      "apt": 2675,
      "That": 2676,
      "aving": 2677,
      "Ġlonger": 2678,
      "adem": 2679,
      "oke": 2680,
      "Ġfinancial": 2681,
      "ession": 2682,
      "Ġrelationship": 2683,
      "ville": 2684,
      "ises": 2685,
      "ĠWashington": 2686,
      "Ġopportunity": 2687,
      "Ġcreated": 2688,
      "\".": 2689,
      "Ġworked": 2690,
      "Ġengine": 2691,
      "oring": 2692,
      "Ġbox": 2693,
      "Ġpaper": 2694,
      "Ġmother": 2695,
      "ĠReg": 2696,
      "ester": 2697,
      "rem": 2698,
      "ana": 2699,
      "ham": 2700,
      "Ġstra": 2701,
      "icles": 2702,
      "Ġround": 2703,
      "Ġsystems": 2704,
      "Ġbooks": 2705,
      "ruary": 2706,
      "Ġlooks": 2707,
      "Ġmat": 2708,
      "Ġtable": 2709,
      "Ġcoll": 2710,
      "Ġsqu": 2711,
      "Ġcampaign": 2712,
      "Ġreading": 2713,
      "arget": 2714,
      "Ġgen": 2715,
      "Ġsoftware": 2716,
      "Ġ40": 2717,
      "Ġdefin": 2718,
      "rote": 2719,
      "Ġfight": 2720,
      "Ġitself": 2721,
      "ĠSome": 2722,
      "Ġprivate": 2723,
      "ĠHealth": 2724,
      "Ġnatural": 2725,
      "ĠDon": 2726,
      "Ġexpress": 2727,
      "Ġhimself": 2728,
      "Ġgave": 2729,
      "ĠIm": 2730,
      "Ġcurrently": 2731,
      "Ġprint": 2732,
      "nesday": 2733,
      "Ġworth": 2734,
      "Ġmoment": 2735,
      "Ġappe": 2736,
      "kend": 2737,
      "ĠVal": 2738,
      "ittee": 2739,
      "ny": 2740,
      "Ġplayer": 2741,
      "Ġattempt": 2742,
      "ĠMon": 2743,
      "Ġstudent": 2744,
      "Ġchance": 2745,
      "ule": 2746,
      "Ġrelease": 2747,
      "itter": 2748,
      "Ġhigher": 2749,
      "based": 2750,
      "ĠJanuary": 2751,
      "Ġhands": 2752,
      "ĠSer": 2753,
      "Ġrate": 2754,
      "haps": 2755,
      "Ġpopular": 2756,
      "cing": 2757,
      "Ġsaying": 2758,
      "Ġlay": 2759,
      "sy": 2760,
      "Ġincluded": 2761,
      "Ġreported": 2762,
      "ek": 2763,
      "Ġsummer": 2764,
      "Ġetc": 2765,
      "Ġsus": 2766,
      "Ġpurp": 2767,
      "Ġneg": 2768,
      "Ġsurpr": 2769,
      "Ġdeg": 2770,
      "Ġfa": 2771,
      "Ġobs": 2772,
      "rel": 2773,
      "Ġdate": 2774,
      "AM": 2775,
      "Ġreceive": 2776,
      "uel": 2777,
      "ought": 2778,
      "Ġtal": 2779,
      "oud": 2780,
      "ĠMonday": 2781,
      "Ġconv": 2782,
      "Ġregular": 2783,
      "ĠGer": 2784,
      "âĢ¢": 2785,
      "urg": 2786,
      "ING": 2787,
      "All": 2788,
      "Sh": 2789,
      "izing": 2790,
      "astic": 2791,
      "Ġord": 2792,
      "Ġpric": 2793,
      "rought": 2794,
      "Ġgoes": 2795,
      "ett": 2796,
      "ĠRepublic": 2797,
      "Ġproperty": 2798,
      "Ġcand": 2799,
      "ĠDem": 2800,
      "Ġboy": 2801,
      "ĠPat": 2802,
      "Ã©": 2803,
      "Ġexam": 2804,
      "ĠArt": 2805,
      "Ġinvolved": 2806,
      "Ġwoman": 2807,
      "atory": 2808,
      "Ġbud": 2809,
      "Ġconnect": 2810,
      "ky": 2811,
      "Ġextra": 2812,
      "Ġbecame": 2813,
      "Ġcool": 2814,
      "Ġinside": 2815,
      "str": 2816,
      "Ġri": 2817,
      "where": 2818,
      "Ġmodel": 2819,
      "ening": 2820,
      "rown": 2821,
      "tain": 2822,
      "Ġfast": 2823,
      "Ġcelebr": 2824,
      "rect": 2825,
      "ma": 2826,
      "Ġinvestig": 2827,
      "ornia": 2828,
      "Ġpers": 2829,
      "Ġele": 2830,
      "Ġdesigned": 2831,
      "Ġsold": 2832,
      "www": 2833,
      "ĠMus": 2834,
      "Ġ197": 2835,
      "Ġobject": 2836,
      "Ġteac": 2837,
      "Ġcomputer": 2838,
      "Ġlives": 2839,
      "irth": 2840,
      "Ġcollect": 2841,
      "Ġsales": 2842,
      "Ġclos": 2843,
      "ray": 2844,
      "put": 2845,
      "Ġdecided": 2846,
      "Ġhear": 2847,
      "Ġprim": 2848,
      "Ġmaterial": 2849,
      "Ġcause": 2850,
      "Ġusers": 2851,
      "oom": 2852,
      "24": 2853,
      "ĠRed": 2854,
      "Cl": 2855,
      "key": 2856,
      "Ġwriting": 2857,
      "ID": 2858,
      "Ġimpact": 2859,
      "ufact": 2860,
      "Ġcolor": 2861,
      "Ġarri": 2862,
      "Ġsle": 2863,
      "aby": 2864,
      "Ġcustomers": 2865,
      "atives": 2866,
      "ospital": 2867,
      "Ġready": 2868,
      "Ġachie": 2869,
      "ĠStreet": 2870,
      "Ġhappy": 2871,
      "Ġprior": 2872,
      "Ġscreen": 2873,
      "Ġcenter": 2874,
      "Ġdrive": 2875,
      "OM": 2876,
      "Ġinstead": 2877,
      "ĠDavid": 2878,
      "Ġparents": 2879,
      "asons": 2880,
      "Ġwritten": 2881,
      "Ġdrug": 2882,
      "Ġpull": 2883,
      "Ġdeep": 2884,
      "erved": 2885,
      "Ġlangu": 2886,
      "Ġthroughout": 2887,
      "Ġpotential": 2888,
      "Ġwrong": 2889,
      "Ġpan": 2890,
      "Ġnation": 2891,
      "Ġfavorite": 2892,
      "Ġinternational": 2893,
      "Ġintrodu": 2894,
      "name": 2895,
      "iple": 2896,
      "Ġapplication": 2897,
      "ades": 2898,
      "Ġclick": 2899,
      "Ġheard": 2900,
      "alt": 2901,
      "Ġadminist": 2902,
      "Ġgets": 2903,
      "ux": 2904,
      "With": 2905,
      "wood": 2906,
      "rab": 2907,
      "hood": 2908,
      "Ġled": 2909,
      "mon": 2910,
      "irit": 2911,
      "Ġnorm": 2912,
      "Ġlatest": 2913,
      "Ġmovie": 2914,
      "Ġ28": 2915,
      "istic": 2916,
      "Ġremember": 2917,
      "Ġbroad": 2918,
      "Ġusually": 2919,
      "Ġexcept": 2920,
      "22": 2921,
      "unt": 2922,
      "Ġpractice": 2923,
      "By": 2924,
      "Ġmass": 2925,
      "sec": 2926,
      "ĠBrit": 2927,
      "Ġproduction": 2928,
      "Ġadditional": 2929,
      "Ġterms": 2930,
      "ĠJe": 2931,
      "Ġstuff": 2932,
      "ĠBlack": 2933,
      "Ġgrowth": 2934,
      "ĠSeptember": 2935,
      "Ġmyself": 2936,
      "Ġgroups": 2937,
      "Ġexpected": 2938,
      "Ġunique": 2939,
      "ĠAugust": 2940,
      "ĠCollege": 2941,
      "Ġbrand": 2942,
      "Ġexperi": 2943,
      "Ġcomments": 2944,
      "ĠNovember": 2945,
      "Ġquarter": 2946,
      "ological": 2947,
      "urb": 2948,
      "Ġitems": 2949,
      "illing": 2950,
      "Ġblood": 2951,
      "urance": 2952,
      "Ġimmedi": 2953,
      "Ġdraw": 2954,
      "Ġshot": 2955,
      "Ġmedical": 2956,
      "Ġprofessional": 2957,
      "ivil": 2958,
      "Ġbecom": 2959,
      "Ġimm": 2960,
      "ĠCourt": 2961,
      "Ġwrote": 2962,
      "Ġexact": 2963,
      "Ġ27": 2964,
      "Ġfair": 2965,
      "Ġeconomic": 2966,
      "ford": 2967,
      "ĠEm": 2968,
      "ĠCalifornia": 2969,
      "Ġep": 2970,
      "lier": 2971,
      "Ġmention": 2972,
      "At": 2973,
      "Ġknew": 2974,
      "ĠPost": 2975,
      "Ġbeautiful": 2976,
      "Ġfresh": 2977,
      "Ġvia": 2978,
      "ĠOctober": 2979,
      "ĠWeb": 2980,
      "ĠTra": 2981,
      "Ġinterview": 2982,
      "Ġrev": 2983,
      "ibrary": 2984,
      "ĠSw": 2985,
      "Ġdog": 2986,
      "LE": 2987,
      "Ġfelt": 2988,
      "light": 2989,
      "mission": 2990,
      "Ġx": 2991,
      "Ġ26": 2992,
      "Ġcases": 2993,
      "Ġpublished": 2994,
      "ications": 2995,
      "ĠSch": 2996,
      "Ġaw": 2997,
      "Ġquickly": 2998,
      "Ġ,": 2999,
      "Ġdiv": 3000,
      "Ġcountries": 3001,
      "onse": 3002,
      "Ġfell": 3003,
      "oogle": 3004,
      "cy": 3005,
      "ĠPar": 3006,
      "ĠSci": 3007,
      "Ġsat": 3008,
      "Ġdetails": 3009,
      "Ġcredit": 3010,
      "ĠInternational": 3011,
      "ĠCong": 3012,
      "ground": 3013,
      "Ġmix": 3014,
      "Ġmid": 3015,
      "ĠTuesday": 3016,
      "Ġmatch": 3017,
      "Ġsend": 3018,
      "Ġability": 3019,
      "ĠAfric": 3020,
      "ĠPaul": 3021,
      "Ġtouch": 3022,
      "Ġhol": 3023,
      "Ġsen": 3024,
      "Ġfunction": 3025,
      "Ġweekend": 3026,
      "Ġstyle": 3027,
      "action": 3028,
      "avy": 3029,
      "Ġtreatment": 3030,
      "ament": 3031,
      "erve": 3032,
      "ĠThursday": 3033,
      "Ġband": 3034,
      "iction": 3035,
      "orge": 3036,
      "ĠDecember": 3037,
      "Ġlooked": 3038,
      "Ġdead": 3039,
      "Ġsn": 3040,
      "sp": 3041,
      "No": 3042,
      "su": 3043,
      "Ġess": 3044,
      "Ġinteresting": 3045,
      "bl": 3046,
      "Ġfederal": 3047,
      "Ġfit": 3048,
      "Ġturned": 3049,
      "ĠInt": 3050,
      "field": 3051,
      "ida": 3052,
      "ĠJack": 3053,
      "aging": 3054,
      "ald": 3055,
      "Ġemer": 3056,
      "Ġreleased": 3057,
      "Ġknowledge": 3058,
      "Ġshoot": 3059,
      "Ġdise": 3060,
      "ĠFin": 3061,
      "Ġhor": 3062,
      "zz": 3063,
      "Ġtarget": 3064,
      "urt": 3065,
      "Ġbed": 3066,
      "Ġeyes": 3067,
      "Ġaffect": 3068,
      "Ġdepend": 3069,
      "Ġplans": 3070,
      "ĠDirect": 3071,
      "isions": 3072,
      "Ġspeak": 3073,
      "Ġpark": 3074,
      "rael": 3075,
      "band": 3076,
      "Ġsens": 3077,
      "ĠFace": 3078,
      "99": 3079,
      "Ġfile": 3080,
      "inary": 3081,
      "Ġlab": 3082,
      "unk": 3083,
      "ĠWhile": 3084,
      "Ġaverage": 3085,
      "Ġlower": 3086,
      "airs": 3087,
      "Ġson": 3088,
      "Ġdirector": 3089,
      "New": 3090,
      "ĠDis": 3091,
      "ĠFebruary": 3092,
      "ened": 3093,
      "pite": 3094,
      "Ġstandard": 3095,
      "ĠRom": 3096,
      "Ġimage": 3097,
      "Ġactivities": 3098,
      "bit": 3099,
      "ructure": 3100,
      "Ġbi": 3101,
      "Ġsepar": 3102,
      "mitted": 3103,
      "Ġdecl": 3104,
      "Ġfans": 3105,
      "Ġsource": 3106,
      "Ġstru": 3107,
      "Ġattention": 3108,
      "Ġ2006": 3109,
      "ls": 3110,
      "Ġencoura": 3111,
      "ĠWind": 3112,
      "ipe": 3113,
      "Ġcopy": 3114,
      "Ġfather": 3115,
      "Ġbrought": 3116,
      "ceed": 3117,
      "azing": 3118,
      "Ġfine": 3119,
      "ĠGener": 3120,
      "Ġsett": 3121,
      "just": 3122,
      "Ġcoun": 3123,
      "Ġcomfort": 3124,
      "Ġmach": 3125,
      "aves": 3126,
      "Ġveh": 3127,
      "Ġsection": 3128,
      "Ġbuilt": 3129,
      "ĠII": 3130,
      "One": 3131,
      "isl": 3132,
      "ara": 3133,
      "Ġsubs": 3134,
      "ĠLaw": 3135,
      "Ġsafe": 3136,
      "ĠThen": 3137,
      "ondon": 3138,
      "23": 3139,
      "Ġstates": 3140,
      "aries": 3141,
      "ĠWilliam": 3142,
      "Ġsil": 3143,
      "Ġuser": 3144,
      "Ġleading": 3145,
      "Ġyourself": 3146,
      "ĠWednesday": 3147,
      "anger": 3148,
      "Ġrelated": 3149,
      "orks": 3150,
      "apan": 3151,
      "uted": 3152,
      "Ġtried": 3153,
      "bum": 3154,
      "Ġwww": 3155,
      "body": 3156,
      "aged": 3157,
      "wise": 3158,
      "ĠEast": 3159,
      "uses": 3160,
      "Ġteams": 3161,
      "Ġlevels": 3162,
      "ica": 3163,
      "Ġslow": 3164,
      "Ġbank": 3165,
      "Ġnearly": 3166,
      "ĠLa": 3167,
      "aint": 3168,
      "Ġdisplay": 3169,
      "AP": 3170,
      "Ġstar": 3171,
      "Ġanswer": 3172,
      "Ġdro": 3173,
      "ĠAc": 3174,
      "ĠTHE": 3175,
      "Ġwall": 3176,
      "Ġgiving": 3177,
      "Ġeight": 3178,
      "Ġut": 3179,
      "ns": 3180,
      "urning": 3181,
      "ĠTex": 3182,
      "BC": 3183,
      "Ġrace": 3184,
      "Ġcosts": 3185,
      "aughter": 3186,
      "EC": 3187,
      "Ġmilitary": 3188,
      "Ġcat": 3189,
      "ension": 3190,
      "Ġhuge": 3191,
      "Ġarch": 3192,
      "?\"": 3193,
      "Ġbillion": 3194,
      "Ġseven": 3195,
      "ysis": 3196,
      "ounds": 3197,
      "Ġstarting": 3198,
      "Ġprojects": 3199,
      "Ġsell": 3200,
      "Ġcross": 3201,
      "Ġannounced": 3202,
      "ago": 3203,
      "Ġlegal": 3204,
      "Ġevidence": 3205,
      "yond": 3206,
      "Ġguys": 3207,
      "Ġdocument": 3208,
      "Ġbal": 3209,
      "Ġconditions": 3210,
      "Ġrequest": 3211,
      "Ġcup": 3212,
      "arning": 3213,
      "ĠWhite": 3214,
      "Ġrelig": 3215,
      "ĠNet": 3216,
      "Ġcollege": 3217,
      "raz": 3218,
      "Ġscore": 3219,
      "idents": 3220,
      "Ġnecessary": 3221,
      "Ġwife": 3222,
      "Ġchoice": 3223,
      "Ġthinking": 3224,
      "Ġclub": 3225,
      "Ġsaf": 3226,
      "ĠHere": 3227,
      "Ġwrite": 3228,
      "cription": 3229,
      "oses": 3230,
      "US": 3231,
      "ĠUs": 3232,
      "Ġpred": 3233,
      "amb": 3234,
      "add": 3235,
      "idered": 3236,
      "enty": 3237,
      "Ġglobal": 3238,
      "ilies": 3239,
      "king": 3240,
      "ani": 3241,
      "After": 3242,
      "aught": 3243,
      "omen": 3244,
      "Ġmanufact": 3245,
      "example": 3246,
      "ET": 3247,
      "imately": 3248,
      "Ġones": 3249,
      "vey": 3250,
      "ĠEnglish": 3251,
      "ĠKing": 3252,
      "Be": 3253,
      "Ġhop": 3254,
      "Ġintegr": 3255,
      "ĠAN": 3256,
      "Ġguy": 3257,
      "Ġwhose": 3258,
      "icks": 3259,
      "Ġenter": 3260,
      "Ġconduct": 3261,
      "ĠInternet": 3262,
      "ecause": 3263,
      "ĠOf": 3264,
      "ĠMor": 3265,
      "down": 3266,
      "Ġresources": 3267,
      "Ġthreat": 3268,
      "uate": 3269,
      "Ġautom": 3270,
      "They": 3271,
      "Ġspent": 3272,
      "Ġdistrib": 3273,
      "Ġpatients": 3274,
      "Ġsometimes": 3275,
      "usiness": 3276,
      "acing": 3277,
      "ĠAnge": 3278,
      "Ġinsp": 3279,
      "ĠAdd": 3280,
      "Ġpiece": 3281,
      "ĠCons": 3282,
      "Ġeffort": 3283,
      "):": 3284,
      "Ġapproach": 3285,
      "Ġbudget": 3286,
      "ĠBu": 3287,
      "Ġfinally": 3288,
      "Ġschools": 3289,
      "pri": 3290,
      "reed": 3291,
      "itc": 3292,
      "ales": 3293,
      "Ġdoor": 3294,
      "arily": 3295,
      "Ġcollection": 3296,
      "Ġorganization": 3297,
      "Ġopin": 3298,
      "Ġskin": 3299,
      "ĠPal": 3300,
      "iles": 3301,
      "Ġlocated": 3302,
      "Ġreports": 3303,
      "omp": 3304,
      "OS": 3305,
      "ĠFrom": 3306,
      "imum": 3307,
      "Ġemb": 3308,
      "aches": 3309,
      "ĠIsrael": 3310,
      "ran": 3311,
      "Ġneigh": 3312,
      "27": 3313,
      "fl": 3314,
      "Post": 3315,
      "vis": 3316,
      "estern": 3317,
      "Ġmessage": 3318,
      "Ġcapt": 3319,
      "Ġgreen": 3320,
      "rig": 3321,
      "Ġtitle": 3322,
      "Ġsuff": 3323,
      "Ġtast": 3324,
      "Ġparts": 3325,
      "ĠFacebook": 3326,
      "Ġfeet": 3327,
      "more": 3328,
      "Ġ>": 3329,
      "Ġrespond": 3330,
      "Ġlo": 3331,
      "ĠFirst": 3332,
      "iding": 3333,
      "Ġinflu": 3334,
      "ĠRead": 3335,
      "EL": 3336,
      "ĠWell": 3337,
      "Ġten": 3338,
      "Ġlack": 3339,
      "Ġeasily": 3340,
      "ĠAustral": 3341,
      "80": 3342,
      "Ġresponse": 3343,
      "ĠAir": 3344,
      "Ġsche": 3345,
      "Ġ+": 3346,
      "hold": 3347,
      "Ġideas": 3348,
      "Ġgives": 3349,
      "Ġchoose": 3350,
      "Ġreb": 3351,
      "ags": 3352,
      "ccording": 3353,
      "Ġsituation": 3354,
      "gar": 3355,
      "board": 3356,
      "Ġdownload": 3357,
      "Ġhair": 3358,
      "mail": 3359,
      "erry": 3360,
      "iring": 3361,
      "Ġdark": 3362,
      "ĠService": 3363,
      "Ġ29": 3364,
      "enced": 3365,
      "itation": 3366,
      "Ġtalking": 3367,
      "45": 3368,
      "IL": 3369,
      "ecutive": 3370,
      "Ġmaybe": 3371,
      "Ġearlier": 3372,
      "Ġdoub": 3373,
      "ĠLondon": 3374,
      "Ġcompletely": 3375,
      "Ġfeed": 3376,
      "Ġwants": 3377,
      "Ġprevent": 3378,
      "ĠCongress": 3379,
      "Ġaward": 3380,
      "ĠPre": 3381,
      "lying": 3382,
      "Ġvariety": 3383,
      "Ġtick": 3384,
      "ims": 3385,
      "ĠJames": 3386,
      "Ġlimited": 3387,
      "duc": 3388,
      "Ġcy": 3389,
      "ipment": 3390,
      "iant": 3391,
      "omb": 3392,
      "stitute": 3393,
      "ĠJapan": 3394,
      "Ġconsidered": 3395,
      "Ġdoll": 3396,
      "iment": 3397,
      "Ġsun": 3398,
      "Ġoptions": 3399,
      "Ġlearning": 3400,
      "Ġsafety": 3401,
      "Ġfeature": 3402,
      "aper": 3403,
      "Ġcamer": 3404,
      "Ġgrand": 3405,
      "Ġlanguage": 3406,
      "ĠCouncil": 3407,
      "ĠGovern": 3408,
      "mas": 3409,
      "rs": 3410,
      "Ġgas": 3411,
      "Ġrout": 3412,
      "ĠGerman": 3413,
      "Ġbill": 3414,
      "ĠGreen": 3415,
      "ĠChurch": 3416,
      "Ġstories": 3417,
      "Ġcoach": 3418,
      "Ġallows": 3419,
      "Ġmis": 3420,
      "ĠDist": 3421,
      "Ġimpress": 3422,
      "ĠChina": 3423,
      "Ġlic": 3424,
      "Ġgun": 3425,
      "Ġweight": 3426,
      "leg": 3427,
      "Ġsort": 3428,
      "ivity": 3429,
      "ĠAssociation": 3430,
      "Ġalbum": 3431,
      "osition": 3432,
      "Ġsave": 3433,
      "ĠUp": 3434,
      "nds": 3435,
      "oly": 3436,
      "ĠTexas": 3437,
      "ĠMichael": 3438,
      "Ġprevious": 3439,
      "Ġstren": 3440,
      "aly": 3441,
      "itiz": 3442,
      "ĠHall": 3443,
      "ĠRich": 3444,
      "Ġhistor": 3445,
      "Ġorganiz": 3446,
      "26": 3447,
      "Ġrock": 3448,
      "Ġbirth": 3449,
      "arc": 3450,
      "ĠGoogle": 3451,
      "Ġcommer": 3452,
      "Ġreve": 3453,
      "Ġnature": 3454,
      "ION": 3455,
      "uk": 3456,
      "Ġinstit": 3457,
      "see": 3458,
      "Ġinterested": 3459,
      "Ġscient": 3460,
      "ĠProgram": 3461,
      "Ġterm": 3462,
      "Ġexcell": 3463,
      "Ġdirectly": 3464,
      "ĠMac": 3465,
      "Ġphotos": 3466,
      "Ġbeginning": 3467,
      "Ġrestaur": 3468,
      "venue": 3469,
      "agn": 3470,
      "ĠGroup": 3471,
      "ears": 3472,
      "Ġcode": 3473,
      "rench": 3474,
      "Ġforce": 3475,
      "anch": 3476,
      "rows": 3477,
      "olf": 3478,
      "Ġallowed": 3479,
      "ha": 3480,
      "wide": 3481,
      "Ġcouldn": 3482,
      "Ġskills": 3483,
      "Ġ2005": 3484,
      "Ġ60": 3485,
      "oday": 3486,
      "Ġblock": 3487,
      "Ġflow": 3488,
      "Ġple": 3489,
      "Ġnumbers": 3490,
      "Our": 3491,
      "28": 3492,
      "ĠOh": 3493,
      "Ġprogress": 3494,
      "Ġcarry": 3495,
      "Ġimag": 3496,
      "ibly": 3497,
      "21": 3498,
      "iers": 3499,
      "ancy": 3500,
      "Ġmodern": 3501,
      "ĠOffice": 3502,
      "lin": 3503,
      "ĠSim": 3504,
      "Ġpicture": 3505,
      "Ġvac": 3506,
      "ĠBill": 3507,
      "Ġnote": 3508,
      "AD": 3509,
      "Ġimplement": 3510,
      "Ġeconomy": 3511,
      "pm": 3512,
      "Ġprot": 3513,
      "Ġstock": 3514,
      "Ġsites": 3515,
      "Ġwarm": 3516,
      "ocks": 3517,
      "osing": 3518,
      "Ġden": 3519,
      "edd": 3520,
      "Ġhous": 3521,
      "Ġstatement": 3522,
      "Ġwait": 3523,
      "ampions": 3524,
      "Ġconsist": 3525,
      "Ġoccur": 3526,
      "Ġcandid": 3527,
      "Ġmount": 3528,
      "Ġdress": 3529,
      "Ġregist": 3530,
      "inner": 3531,
      "35": 3532,
      "29": 3533,
      "iance": 3534,
      "itely": 3535,
      "Ġstraight": 3536,
      "ault": 3537,
      "Ġbenefits": 3538,
      "Ġhappened": 3539,
      "Ġtrip": 3540,
      "ĠFlor": 3541,
      "ports": 3542,
      "ĠRober": 3543,
      "OL": 3544,
      "Ġextreme": 3545,
      "Ġspeed": 3546,
      "Ġfamilies": 3547,
      "Ġappl": 3548,
      "Ġmoved": 3549,
      "Ġlif": 3550,
      "oul": 3551,
      "She": 3552,
      "Ġinstru": 3553,
      "ĠDemocr": 3554,
      "unities": 3555,
      "Ġlocation": 3556,
      "ĠOp": 3557,
      "het": 3558,
      "ĠAre": 3559,
      "Ġofficials": 3560,
      "Ġstage": 3561,
      "atever": 3562,
      "Ġ*": 3563,
      "ength": 3564,
      "rences": 3565,
      "Ġgrowing": 3566,
      "Ġmiddle": 3567,
      "Ġserious": 3568,
      "Ġdire": 3569,
      "Ġfirm": 3570,
      "De": 3571,
      "Ġpath": 3572,
      "ares": 3573,
      "sych": 3574,
      "Ġplant": 3575,
      "ĠMart": 3576,
      "ords": 3577,
      "undred": 3578,
      "Ġpaid": 3579,
      "imin": 3580,
      "Ġfix": 3581,
      "Ġproviding": 3582,
      "ĠPlease": 3583,
      "Ġdemon": 3584,
      "Ġthous": 3585,
      "Ġamazing": 3586,
      "Ġnamed": 3587,
      "sequ": 3588,
      "ĠSuper": 3589,
      "Ġprices": 3590,
      "Ġpromot": 3591,
      "Ġofficial": 3592,
      "Ġalthough": 3593,
      "ston": 3594,
      "Ġdeveloped": 3595,
      "ography": 3596,
      "IG": 3597,
      "Ġensure": 3598,
      "Ġbeyond": 3599,
      "ĠMet": 3600,
      "Ġeffective": 3601,
      "____": 3602,
      "Ġpartners": 3603,
      "Ġlik": 3604,
      "ager": 3605,
      "ashion": 3606,
      "ĠJew": 3607,
      "ĠOut": 3608,
      "Ġscience": 3609,
      "Ġconvers": 3610,
      "opping": 3611,
      "Ġbrother": 3612,
      "Ġtrust": 3613,
      "Ġpen": 3614,
      "Ġconference": 3615,
      "Ġcertainly": 3616,
      "ĠBoard": 3617,
      "Ġconne": 3618,
      "Ġcorrect": 3619,
      "Ġqual": 3620,
      "Ġdaily": 3621,
      "Ġwish": 3622,
      "Ġsuccessful": 3623,
      "ipping": 3624,
      "Now": 3625,
      "Ġphysical": 3626,
      "Ġregion": 3627,
      "Ġserved": 3628,
      "ulations": 3629,
      "Ġindepend": 3630,
      "Ġadult": 3631,
      "ĠSpr": 3632,
      "Ġparticularly": 3633,
      "Ġreach": 3634,
      "ously": 3635,
      "Ġalone": 3636,
      "ĠBig": 3637,
      "Ġefforts": 3638,
      "Ġfloor": 3639,
      "Ġeffic": 3640,
      "useum": 3641,
      "Ġeat": 3642,
      "asc": 3643,
      "force": 3644,
      "ils": 3645,
      "Ġsurv": 3646,
      "ĠEvery": 3647,
      "Ġannual": 3648,
      "Ġplaces": 3649,
      "ĠChristian": 3650,
      "Ġcancer": 3651,
      "Ġpurchase": 3652,
      "Ġcomplex": 3653,
      "PS": 3654,
      "ĠPublic": 3655,
      "Ġoverall": 3656,
      "Ġver": 3657,
      "rast": 3658,
      "ĠEven": 3659,
      "Ġtrade": 3660,
      "Ġjobs": 3661,
      "Ġult": 3662,
      "More": 3663,
      "Ġposted": 3664,
      "ĠGeneral": 3665,
      "mm": 3666,
      "ĠAlso": 3667,
      "Ġemployees": 3668,
      "Ġexactly": 3669,
      "Ġconcept": 3670,
      "ĠMary": 3671,
      "Ġgold": 3672,
      "Ġdifference": 3673,
      "ari": 3674,
      "Ġhighly": 3675,
      "ĠIN": 3676,
      "Ġappropri": 3677,
      "coming": 3678,
      "Ġhotel": 3679,
      "Ġdisease": 3680,
      "orrow": 3681,
      "Ġextend": 3682,
      "Ġhus": 3683,
      "Ġruns": 3684,
      "ĠServices": 3685,
      "Ġvoice": 3686,
      "ocol": 3687,
      "Ġgone": 3688,
      "Ġspot": 3689,
      "Ġadvant": 3690,
      "Ġpositive": 3691,
      "Ġdemand": 3692,
      "Ġdouble": 3693,
      "Ġmoving": 3694,
      "Ġdevice": 3695,
      "ĠGreat": 3696,
      "Ġpoor": 3697,
      "Ġbur": 3698,
      "EO": 3699,
      "icago": 3700,
      "ĠTrans": 3701,
      "Ġchurch": 3702,
      "Ġcapital": 3703,
      "Ġaware": 3704,
      "Ġphoto": 3705,
      "ĠBook": 3706,
      "gers": 3707,
      "Un": 3708,
      "?âĢĿ": 3709,
      "olute": 3710,
      "ĠTechn": 3711,
      "ĠIndian": 3712,
      "IV": 3713,
      "Ġeffects": 3714,
      "ĠHot": 3715,
      "rian": 3716,
      "ĠPlay": 3717,
      "Ġroll": 3718,
      "Ġimages": 3719,
      "ĠResearch": 3720,
      "arr": 3721,
      "Ġapplications": 3722,
      "ady": 3723,
      "Ġcorpor": 3724,
      "akers": 3725,
      "olic": 3726,
      "hest": 3727,
      "Ġfarm": 3728,
      "Pro": 3729,
      "Ġdied": 3730,
      "Ġbaby": 3731,
      "Ġchanged": 3732,
      "mark": 3733,
      "ĠSystem": 3734,
      "Ġobv": 3735,
      "ĠEduc": 3736,
      "ĠSmith": 3737,
      "Ġaltern": 3738,
      "ĠProf": 3739,
      "encies": 3740,
      "Ex": 3741,
      "ĠFe": 3742,
      "Ġded": 3743,
      "Ġdream": 3744,
      "iled": 3745,
      "Ġcharge": 3746,
      "Ġshown": 3747,
      "Ġserve": 3748,
      "rief": 3749,
      "inger": 3750,
      "Ġfinished": 3751,
      "AA": 3752,
      "ĠUK": 3753,
      "sey": 3754,
      "reci": 3755,
      "Ġvote": 3756,
      "Ġlegisl": 3757,
      "Ġperhaps": 3758,
      "Ġdefense": 3759,
      "Ġcondition": 3760,
      "Ġbottom": 3761,
      "ĠMost": 3762,
      "izes": 3763,
      "arth": 3764,
      "Ġrules": 3765,
      "Ġcustomer": 3766,
      "change": 3767,
      "Ġbehav": 3768,
      "Ġprem": 3769,
      "Ġremain": 3770,
      "Ġwel": 3771,
      "ĠCommission": 3772,
      "ĠMem": 3773,
      "atform": 3774,
      "ĠInst": 3775,
      "ipp": 3776,
      "vest": 3777,
      "Ġsom": 3778,
      "Ġcivil": 3779,
      "Ġge": 3780,
      "Ġtraditional": 3781,
      "Ġavoid": 3782,
      "Ġfollowed": 3783,
      "ico": 3784,
      "Ġoption": 3785,
      "33": 3786,
      "inally": 3787,
      "Ġheat": 3788,
      "Ġspend": 3789,
      "Ġplanning": 3790,
      "vin": 3791,
      "\",": 3792,
      "aled": 3793,
      "Ġspirit": 3794,
      "Ġdisp": 3795,
      "Ġmiles": 3796,
      "ĠAnn": 3797,
      "Ġmultiple": 3798,
      "ĠPress": 3799,
      "set": 3800,
      "ĠLou": 3801,
      "Ġfrequ": 3802,
      "Ġfeeling": 3803,
      "Ġpressure": 3804,
      "ĠBrown": 3805,
      "with": 3806,
      "men": 3807,
      "Here": 3808,
      "Ġdetermin": 3809,
      "aling": 3810,
      "Ġimmediately": 3811,
      "iller": 3812,
      "Ar": 3813,
      "umn": 3814,
      "ĠLet": 3815,
      "Ġoffered": 3816,
      "Ġren": 3817,
      "Ġtools": 3818,
      "ĠFlorida": 3819,
      "CC": 3820,
      "Ġinform": 3821,
      "Ġwouldn": 3822,
      "Ġeye": 3823,
      "mat": 3824,
      "ĠFound": 3825,
      "Ġhelped": 3826,
      "order": 3827,
      "Ġund": 3828,
      "ipped": 3829,
      "Ġ2004": 3830,
      "ĠCle": 3831,
      "Ġuses": 3832,
      "ĠRec": 3833,
      "ander": 3834,
      "ĠGood": 3835,
      "Is": 3836,
      "raw": 3837,
      "ronic": 3838,
      "Ġmobile": 3839,
      "Ġacqu": 3840,
      "Ġfully": 3841,
      "ĠApple": 3842,
      "Ġdrink": 3843,
      "ĠWindows": 3844,
      "Ġfan": 3845,
      "Ġactivity": 3846,
      "ki": 3847,
      "Ġwood": 3848,
      "arden": 3849,
      "hips": 3850,
      "Ġprec": 3851,
      "iling": 3852,
      "Ġlines": 3853,
      "azine": 3854,
      "ĠHome": 3855,
      "icip": 3856,
      "Ġdisapp": 3857,
      "Ġincreased": 3858,
      "apter": 3859,
      "Ġequipment": 3860,
      "Ġhundred": 3861,
      "ĠBen": 3862,
      "ĠMiss": 3863,
      "ĠDel": 3864,
      "ĠInter": 3865,
      "ĠPhil": 3866,
      "Ġgoals": 3867,
      "Ġrefer": 3868,
      "Ġargu": 3869,
      "nded": 3870,
      "soft": 3871,
      "ota": 3872,
      "Ġpet": 3873,
      "ado": 3874,
      "Ġincreasing": 3875,
      "ĠPort": 3876,
      "ĠEuropean": 3877,
      "unte": 3878,
      "Ġhaven": 3879,
      "ech": 3880,
      "Ġmarketing": 3881,
      "Ġmaterials": 3882,
      "Ġculture": 3883,
      "Ġliter": 3884,
      "Ġpassed": 3885,
      "Ġtrou": 3886,
      "Ġbeat": 3887,
      "Ġanalysis": 3888,
      "Ġdigital": 3889,
      "bon": 3890,
      "ĠTimes": 3891,
      "Ġcast": 3892,
      "Ġcontinued": 3893,
      "ĠBusiness": 3894,
      "ĠChar": 3895,
      "ĠJes": 3896,
      "dom": 3897,
      "Ġdegree": 3898,
      "Ġresponsible": 3899,
      "ĠOF": 3900,
      "Ġpurpose": 3901,
      "ĠSee": 3902,
      "Ġlargest": 3903,
      "iation": 3904,
      "ĠRob": 3905,
      "Ġtypes": 3906,
      "Ġsleep": 3907,
      "house": 3908,
      "anta": 3909,
      "Ġstrugg": 3910,
      "70": 3911,
      "ĠOther": 3912,
      "Se": 3913,
      "ĠAnt": 3914,
      "que": 3915,
      "ĠBay": 3916,
      "ses": 3917,
      "Ġopening": 3918,
      "ĠTwitter": 3919,
      "Ġkept": 3920,
      "ona": 3921,
      "ĠEv": 3922,
      "Ġowners": 3923,
      "Ġindic": 3924,
      "Ġslight": 3925,
      "inn": 3926,
      "ĠGold": 3927,
      "Ġbenefit": 3928,
      "well": 3929,
      "Ġguess": 3930,
      "Ġhusband": 3931,
      "Ġaren": 3932,
      "Ġconc": 3933,
      "While": 3934,
      "Ġrates": 3935,
      "Ġtowards": 3936,
      "Ġbasis": 3937,
      "Ġtoward": 3938,
      "Â®": 3939,
      "chan": 3940,
      "Ġpow": 3941,
      "Ġletter": 3942,
      "amm": 3943,
      "Ġpages": 3944,
      "cks": 3945,
      "Ġfem": 3946,
      "Ġbeg": 3947,
      "ĠSun": 3948,
      "Ġfaith": 3949,
      "Ġ31": 3950,
      "ĠMag": 3951,
      "etic": 3952,
      "ĠDevelop": 3953,
      "lished": 3954,
      "ruit": 3955,
      "owl": 3956,
      "Ġahead": 3957,
      "ĠIS": 3958,
      "Ġborn": 3959,
      "Ġopportunities": 3960,
      "iny": 3961,
      "ĠChicago": 3962,
      "Ġindividuals": 3963,
      "ĠCanada": 3964,
      "Ġ196": 3965,
      "ĠCommittee": 3966,
      "opped": 3967,
      "rey": 3968,
      "Ġsenior": 3969,
      "rant": 3970,
      "ĠAny": 3971,
      "ĠInstitute": 3972,
      "**": 3973,
      "Ġfiles": 3974,
      "Ġexerc": 3975,
      "ĠSl": 3976,
      "Ġachieve": 3977,
      "Ġexcellent": 3978,
      "irgin": 3979,
      "Ġreflect": 3980,
      "Ġapply": 3981,
      "Ġload": 3982,
      "DA": 3983,
      "ervation": 3984,
      "bed": 3985,
      "Ġcateg": 3986,
      "Ġhospital": 3987,
      "ĠRock": 3988,
      "75": 3989,
      "Ġsale": 3990,
      "Ġjoin": 3991,
      "Ġsolution": 3992,
      "ancing": 3993,
      "Ġactive": 3994,
      "ĠBritish": 3995,
      "Ġmanager": 3996,
      "Ġcert": 3997,
      "antly": 3998,
      "hens": 3999,
      "Ġinsurance": 4000,
      "Ġknows": 4001,
      "aven": 4002,
      "Ġreasons": 4003,
      "Ġrepe": 4004,
      "Don": 4005,
      "Ġmeaning": 4006,
      "ĠMicro": 4007,
      "Ġdry": 4008,
      "Ġfigure": 4009,
      "Ġanaly": 4010,
      "Ġpattern": 4011,
      "Ġadvert": 4012,
      "uled": 4013,
      "TH": 4014,
      "Ġmeasure": 4015,
      "ustr": 4016,
      "TS": 4017,
      "Ġtemper": 4018,
      "Ġfra": 4019,
      "Not": 4020,
      "berg": 4021,
      "ĠChristmas": 4022,
      "Ġcalls": 4023,
      "Ġdaughter": 4024,
      "rees": 4025,
      "Ġsports": 4026,
      "lor": 4027,
      "ĠFrench": 4028,
      "Ġ=": 4029,
      "Ġnormal": 4030,
      "Ġpictures": 4031,
      "iable": 4032,
      "ĠFranc": 4033,
      "omas": 4034,
      "rowd": 4035,
      "Ġinnov": 4036,
      "oms": 4037,
      "Ġwild": 4038,
      "Ġ@": 4039,
      "Ġappreci": 4040,
      "Ġnames": 4041,
      "ĠFree": 4042,
      "Ġgreater": 4043,
      "Ġpopulation": 4044,
      "Ġton": 4045,
      "itude": 4046,
      "using": 4047,
      "Ġstudies": 4048,
      "ube": 4049,
      "rial": 4050,
      "rim": 4051,
      "itar": 4052,
      "Ġwonderful": 4053,
      "itz": 4054,
      ");": 4055,
      "Ġsubst": 4056,
      "Ġfootball": 4057,
      "100": 4058,
      "Ġchallenge": 4059,
      "Ġprefer": 4060,
      "mine": 4061,
      "ĠDec": 4062,
      "Ġcitiz": 4063,
      "Ġleader": 4064,
      "Ġcold": 4065,
      "osh": 4066,
      "Ġdefinitely": 4067,
      "ĠCompany": 4068,
      "ĠAmericans": 4069,
      "Ġglass": 4070,
      "Ġwat": 4071,
      "Ġdamage": 4072,
      "inter": 4073,
      "Ġseemed": 4074,
      "ulated": 4075,
      "amic": 4076,
      "Ġspring": 4077,
      "ĠPri": 4078,
      "Ġsociety": 4079,
      "90": 4080,
      "isco": 4081,
      "Ġcharacters": 4082,
      "ĠRoad": 4083,
      "iced": 4084,
      "but": 4085,
      "itable": 4086,
      "Ġble": 4087,
      "gal": 4088,
      "ĠPet": 4089,
      "ĠIsland": 4090,
      "Ġcommercial": 4091,
      "IM": 4092,
      "istry": 4093,
      "ken": 4094,
      "Ġnotice": 4095,
      "Ġseeing": 4096,
      "Ġunderstanding": 4097,
      "Ġgrant": 4098,
      "ĠSam": 4099,
      "Ġbusinesses": 4100,
      "Ġfat": 4101,
      "Ġoccas": 4102,
      "May": 4103,
      "Con": 4104,
      "Posted": 4105,
      "Ġtruth": 4106,
      "udd": 4107,
      "Ġpros": 4108,
      "Ġadvice": 4109,
      "Ġbasic": 4110,
      "Ġconsult": 4111,
      "Ġfinish": 4112,
      "Ġlearned": 4113,
      "arant": 4114,
      "CH": 4115,
      "ĠâĢ¦": 4116,
      "Ġcreating": 4117,
      "RA": 4118,
      "Ġblue": 4119,
      "ĠClub": 4120,
      "Ġspending": 4121,
      "OP": 4122,
      "riage": 4123,
      "ĠBel": 4124,
      "Ġexpand": 4125,
      "reak": 4126,
      "ĠRet": 4127,
      "lim": 4128,
      "Ġspread": 4129,
      "From": 4130,
      "Ġsweet": 4131,
      "ĠWhy": 4132,
      "Ġsecret": 4133,
      "inated": 4134,
      "ae": 4135,
      "Ġgirls": 4136,
      "ĠDirector": 4137,
      "Ġlarger": 4138,
      "levision": 4139,
      "atab": 4140,
      "Ġnut": 4141,
      "outhern": 4142,
      "igned": 4143,
      "ĠIndia": 4144,
      "ĠRiver": 4145,
      "ĠMod": 4146,
      "Ġassess": 4147,
      "Ġproced": 4148,
      "atively": 4149,
      "Ġgra": 4150,
      "Please": 4151,
      "ĠGeorge": 4152,
      "Ġpeace": 4153,
      "za": 4154,
      "ĠLeague": 4155,
      "ucky": 4156,
      "Ġcentury": 4157,
      "Ġbiggest": 4158,
      "Ġabsolute": 4159,
      "Ġdescribed": 4160,
      "ĠRuss": 4161,
      "ĠHist": 4162,
      "uty": 4163,
      "Ġhealthy": 4164,
      "Ġconstruction": 4165,
      "roy": 4166,
      "place": 4167,
      "Ġgar": 4168,
      "ivery": 4169,
      "Ġsomew": 4170,
      "ĠCarol": 4171,
      "Ġentertain": 4172,
      "Ġadop": 4173,
      "Ġhelps": 4174,
      "ĠPC": 4175,
      "Ġcommit": 4176,
      "ĠTom": 4177,
      "500": 4178,
      "Ġonto": 4179,
      "Ġcamera": 4180,
      "ooth": 4181,
      "Ġmovement": 4182,
      "Ġcolle": 4183,
      "itness": 4184,
      "OW": 4185,
      "Ġreduce": 4186,
      "Ġ80": 4187,
      "Ġmail": 4188,
      "tr": 4189,
      "Ġscene": 4190,
      "Ġplatform": 4191,
      "Ġvirt": 4192,
      "isf": 4193,
      "pects": 4194,
      "istics": 4195,
      "Ġfourth": 4196,
      "ĠClass": 4197,
      "ĠJim": 4198,
      "ores": 4199,
      "ĠEducation": 4200,
      "Ġstrateg": 4201,
      "Ġ2003": 4202,
      "Ġjump": 4203,
      "ĠEngland": 4204,
      "IP": 4205,
      "Ġsust": 4206,
      "Ġgift": 4207,
      "itect": 4208,
      "Ġtransfer": 4209,
      "Ġforeign": 4210,
      "Ġclin": 4211,
      "Ġorganizations": 4212,
      "Ġappears": 4213,
      "last": 4214,
      "Ġworkers": 4215,
      "ĠCamp": 4216,
      "ented": 4217,
      "rupt": 4218,
      "95": 4219,
      "Ġappropriate": 4220,
      "part": 4221,
      "Ġmer": 4222,
      "Ġadvantage": 4223,
      "BS": 4224,
      "Ġloved": 4225,
      "uman": 4226,
      "Ġanti": 4227,
      "Ġlength": 4228,
      "phone": 4229,
      "Ġcontain": 4230,
      "gen": 4231,
      "yan": 4232,
      "oto": 4233,
      "Ġexhib": 4234,
      "Ġconstit": 4235,
      "Ġthank": 4236,
      "Ġpowerful": 4237,
      "ĠMike": 4238,
      "ulf": 4239,
      "ym": 4240,
      "Ġthrow": 4241,
      "44": 4242,
      "ros": 4243,
      "Ġchem": 4244,
      "Ġopinion": 4245,
      "esterday": 4246,
      "Ġproduce": 4247,
      "Ġassociated": 4248,
      "Ġinvestment": 4249,
      "Ġwhatever": 4250,
      "Ġ2000": 4251,
      "Ġshowed": 4252,
      "Ġrent": 4253,
      "ĠMex": 4254,
      "miss": 4255,
      "ĠST": 4256,
      "Ġcru": 4257,
      "Ġwine": 4258,
      "ij": 4259,
      "ĠSal": 4260,
      "Ġsurround": 4261,
      "Ġweather": 4262,
      "Ġevening": 4263,
      "anging": 4264,
      "ĠOver": 4265,
      "Ġsurface": 4266,
      "ĠReview": 4267,
      "ĠUSA": 4268,
      "Ġdeliver": 4269,
      "ĠBank": 4270,
      "Ġdoctor": 4271,
      "osure": 4272,
      "Ġremains": 4273,
      "Ġaccur": 4274,
      "ocal": 4275,
      "Ġdemonstr": 4276,
      "Last": 4277,
      "Ġestablished": 4278,
      "ĠChild": 4279,
      "ties": 4280,
      "Ġemot": 4281,
      "Ġearth": 4282,
      "ours": 4283,
      "win": 4284,
      "Ġkilled": 4285,
      "ĠMat": 4286,
      "ĠSur": 4287,
      "36": 4288,
      "estival": 4289,
      "ĠDistrict": 4290,
      "ooper": 4291,
      "Ġclients": 4292,
      "friend": 4293,
      "Ġrequirements": 4294,
      "roud": 4295,
      "Ġcompetition": 4296,
      "Ġsolid": 4297,
      "Ġpoll": 4298,
      "Ġtruly": 4299,
      "Ġarrest": 4300,
      "asy": 4301,
      "range": 4302,
      "ffee": 4303,
      "Ġgenerally": 4304,
      "edy": 4305,
      "Ġappoint": 4306,
      "Ġproduced": 4307,
      "Ġcompared": 4308,
      "rep": 4309,
      "amily": 4310,
      "05": 4311,
      "olly": 4312,
      "Ġrecords": 4313,
      "ategy": 4314,
      "Ġunit": 4315,
      "unately": 4316,
      "Ne": 4317,
      "Ġopened": 4318,
      "ĠDiv": 4319,
      "ĠBer": 4320,
      "Ġsetting": 4321,
      "Ġmission": 4322,
      "Ġheavy": 4323,
      "Ġplaced": 4324,
      "Ġlinks": 4325,
      "Ġcrowd": 4326,
      "!\"": 4327,
      "Ġreplace": 4328,
      "Ġclot": 4329,
      "Ġdevices": 4330,
      "Ġenh": 4331,
      "Ġdepartment": 4332,
      "Ġstandards": 4333,
      "Ġcompon": 4334,
      "Ġtransport": 4335,
      "Ġwinning": 4336,
      "Ġpresented": 4337,
      "aid": 4338,
      "ifying": 4339,
      "orage": 4340,
      "Ġir": 4341,
      "icine": 4342,
      "look": 4343,
      "Ġtrial": 4344,
      "night": 4345,
      "ĠMany": 4346,
      "Ġexpert": 4347,
      "Ġlots": 4348,
      "Ġpatient": 4349,
      "Ġdiscussion": 4350,
      "ĠLife": 4351,
      "Ġstatus": 4352,
      "term": 4353,
      "ucle": 4354,
      "Ġfab": 4355,
      "cript": 4356,
      "itors": 4357,
      "ĠPR": 4358,
      "Ġmist": 4359,
      "Some": 4360,
      "inese": 4361,
      "Ġoffering": 4362,
      "Phone": 4363,
      "gment": 4364,
      "BA": 4365,
      "55": 4366,
      "ĠSub": 4367,
      "gl": 4368,
      "Ab": 4369,
      "Ġprimary": 4370,
      "Ġjournal": 4371,
      "Ġcontinu": 4372,
      "Ġmemory": 4373,
      "Ġweap": 4374,
      "Ġnove": 4375,
      "Ġcontinues": 4376,
      "Ġiniti": 4377,
      "ĠTer": 4378,
      "ulate": 4379,
      "EM": 4380,
      "Ġelection": 4381,
      "Ġacadem": 4382,
      "ĠScott": 4383,
      "semb": 4384,
      "Ġwatching": 4385,
      "2013": 4386,
      "annel": 4387,
      "ĠTy": 4388,
      "Ġeasier": 4389,
      "Ġhomes": 4390,
      "rely": 4391,
      "point": 4392,
      "Ġfear": 4393,
      "Ġclosed": 4394,
      "Ġpieces": 4395,
      "arks": 4396,
      "Ġdistrict": 4397,
      "ĠMil": 4398,
      "Ġvehicle": 4399,
      "Ġadjust": 4400,
      "oma": 4401,
      "ĠRobert": 4402,
      "Ġneighbor": 4403,
      "Pl": 4404,
      "Ġthanks": 4405,
      "ĠInformation": 4406,
      "ĠSol": 4407,
      "apers": 4408,
      "Ġended": 4409,
      "Ġstation": 4410,
      "Ġmax": 4411,
      "ĠÂ£": 4412,
      "IA": 4413,
      "Ġowner": 4414,
      "Ġcritical": 4415,
      "ĠScience": 4416,
      "state": 4417,
      "standing": 4418,
      "ĠRel": 4419,
      "ĠJer": 4420,
      "ĠLord": 4421,
      "These": 4422,
      "Ġclaims": 4423,
      "Ġplus": 4424,
      "PA": 4425,
      "ĠCD": 4426,
      "Ġradio": 4427,
      "Ġexisting": 4428,
      "Ġdanger": 4429,
      "ĠJesus": 4430,
      "Ġincome": 4431,
      "Ġestablish": 4432,
      "Ġmachine": 4433,
      "ĠFrank": 4434,
      "Ġclearly": 4435,
      "that": 4436,
      "Ġnine": 4437,
      "ĠGet": 4438,
      "Ġattract": 4439,
      "Ġrank": 4440,
      "ette": 4441,
      "38": 4442,
      "Ġsched": 4443,
      "ĠRem": 4444,
      "Ġcompleted": 4445,
      "Ġstreet": 4446,
      "Ġbag": 4447,
      "Ġtrain": 4448,
      "Ġkick": 4449,
      "Ġbrain": 4450,
      "Ġfol": 4451,
      "istan": 4452,
      "Ġolder": 4453,
      "vention": 4454,
      "Ġdrop": 4455,
      "ĠHill": 4456,
      "Ġ35": 4457,
      "ĠLake": 4458,
      "UR": 4459,
      "ĠVol": 4460,
      "Ġlaws": 4461,
      "Ġbattle": 4462,
      "Ġstick": 4463,
      "pport": 4464,
      "Ġmeant": 4465,
      "----": 4466,
      "ĠYear": 4467,
      "ĠStar": 4468,
      "acity": 4469,
      "imb": 4470,
      "34": 4471,
      "ĠLos": 4472,
      "Ġsmart": 4473,
      "Ġign": 4474,
      "Ġeval": 4475,
      "ios": 4476,
      "kn": 4477,
      "ologies": 4478,
      "eting": 4479,
      "oices": 4480,
      "ĠPeople": 4481,
      "Ġremind": 4482,
      "Ġwaiting": 4483,
      "igan": 4484,
      "ĠWork": 4485,
      "Ġmill": 4486,
      "Ġvill": 4487,
      "Ġfashion": 4488,
      "Ġparties": 4489,
      "Ġfunds": 4490,
      "Ġrule": 4491,
      "ĠAv": 4492,
      "ĠTime": 4493,
      "Ġprotection": 4494,
      "no": 4495,
      "Ġretail": 4496,
      "ĠMount": 4497,
      "Ġotherwise": 4498,
      "Ġwhom": 4499,
      "Ġbought": 4500,
      "Ġestim": 4501,
      "dule": 4502,
      "Ġfant": 4503,
      "text": 4504,
      "orial": 4505,
      "Ġhighest": 4506,
      "Ġcatch": 4507,
      "Ġactual": 4508,
      "Ġdriving": 4509,
      "Ġhelping": 4510,
      "Ġ90": 4511,
      "orney": 4512,
      "ĠSince": 4513,
      "ĠVirgin": 4514,
      "Ġmajority": 4515,
      "rd": 4516,
      "Ġreality": 4517,
      "ero": 4518,
      "antic": 4519,
      "spe": 4520,
      "âĢĿ.": 4521,
      "Ġagency": 4522,
      "which": 4523,
      "ius": 4524,
      "ĠCap": 4525,
      "ĠWil": 4526,
      "noon": 4527,
      "Ġstrength": 4528,
      "ĠCentral": 4529,
      "oop": 4530,
      "box": 4531,
      "gn": 4532,
      "ĠPlan": 4533,
      "ads": 4534,
      "Ġraised": 4535,
      "Ġuseful": 4536,
      "Ġreached": 4537,
      "Ġsch": 4538,
      "isher": 4539,
      "Ġviews": 4540,
      "Ġhappens": 4541,
      "okes": 4542,
      "37": 4543,
      "ugg": 4544,
      "ĠJud": 4545,
      "oving": 4546,
      "Ġshop": 4547,
      "Ġbrief": 4548,
      "Ġarm": 4549,
      "Ġpsych": 4550,
      "kin": 4551,
      "oves": 4552,
      "opyright": 4553,
      "iverse": 4554,
      "ket": 4555,
      "ĠLouis": 4556,
      "Ġdirection": 4557,
      "Ġcash": 4558,
      "Ġwear": 4559,
      "Ġdespite": 4560,
      "porary": 4561,
      "Ġselection": 4562,
      "Ġpair": 4563,
      "Ġmechan": 4564,
      "ĠAlex": 4565,
      "ĠGovernment": 4566,
      "Ġrequires": 4567,
      "Ġcentral": 4568,
      ".'": 4569,
      "Ġaudience": 4570,
      "Ġvolunte": 4571,
      "alls": 4572,
      "ĠIT": 4573,
      "Ġice": 4574,
      "Bl": 4575,
      "Ġkid": 4576,
      "Do": 4577,
      "2012": 4578,
      "Ġconnection": 4579,
      "gency": 4580,
      "ĠFore": 4581,
      "Ġstress": 4582,
      "ĠMcC": 4583,
      "Ġ70": 4584,
      "Ġsem": 4585,
      "Ġpartner": 4586,
      "atically": 4587,
      "Ġthus": 4588,
      "Ġbackground": 4589,
      "Ġstarts": 4590,
      "ĠNov": 4591,
      "Ġregarding": 4592,
      "Ġgraph": 4593,
      "Ġcovered": 4594,
      "ocked": 4595,
      "Ġfinding": 4596,
      "Ġyards": 4597,
      "orter": 4598,
      "Ġtraffic": 4599,
      "Ġtherefore": 4600,
      "Ġrich": 4601,
      "Ġeth": 4602,
      "itchen": 4603,
      "Ġcris": 4604,
      "Ġthousands": 4605,
      "Le": 4606,
      "Ġpolic": 4607,
      "Ġbreat": 4608,
      "Ġmur": 4609,
      "Ġscen": 4610,
      "Ġextremely": 4611,
      "Ġfish": 4612,
      "Ġplays": 4613,
      "Ġreturned": 4614,
      "Ġcommunities": 4615,
      "works": 4616,
      "bert": 4617,
      "Ġoperations": 4618,
      "Ġleaving": 4619,
      "how": 4620,
      "ĠAngeles": 4621,
      "Ġforum": 4622,
      "ulty": 4623,
      "ula": 4624,
      "pective": 4625,
      "rick": 4626,
      "Ġadministration": 4627,
      "Ġchair": 4628,
      "Ġcaused": 4629,
      "Ġstructure": 4630,
      "Ġrap": 4631,
      "asure": 4632,
      "ĠChris": 4633,
      "ĠFoundation": 4634,
      "ĠBecause": 4635,
      "press": 4636,
      "Ġsteps": 4637,
      "kins": 4638,
      "Ġshowing": 4639,
      "Ġlose": 4640,
      "Cont": 4641,
      "Ġur": 4642,
      "asp": 4643,
      "fit": 4644,
      "Ġhar": 4645,
      "ĠMass": 4646,
      "ĠUN": 4647,
      "while": 4648,
      "VD": 4649,
      "net": 4650,
      "raq": 4651,
      "Ġmicro": 4652,
      "Ġresidents": 4653,
      "outs": 4654,
      "aming": 4655,
      "entially": 4656,
      "Ġlimit": 4657,
      "Ġdeveloping": 4658,
      "overy": 4659,
      "Ġwilling": 4660,
      "Ġrob": 4661,
      "ĠUnion": 4662,
      "ĠTop": 4663,
      "Ġsources": 4664,
      "Ġapparent": 4665,
      "Ġcollabor": 4666,
      "ĠSum": 4667,
      "ĠMad": 4668,
      "Ġcards": 4669,
      "Ġepis": 4670,
      "Ġelectric": 4671,
      "Ad": 4672,
      "ĠJournal": 4673,
      "ste": 4674,
      "Ġpray": 4675,
      "Ġmulti": 4676,
      "ĠJeff": 4677,
      "ection": 4678,
      "Ġminute": 4679,
      "Ġnor": 4680,
      "cape": 4681,
      "Ġing": 4682,
      "ĠTim": 4683,
      "Ġexclus": 4684,
      "Ġflu": 4685,
      "Ġapprox": 4686,
      "ĠSil": 4687,
      "Ġprofession": 4688,
      "Ġhearing": 4689,
      "acks": 4690,
      "Ġproud": 4691,
      "ĠJohnson": 4692,
      "Ġliber": 4693,
      "Ġsigned": 4694,
      "enses": 4695,
      "Ġfif": 4696,
      "Ġchief": 4697,
      "ĠVer": 4698,
      "Ġvs": 4699,
      "ĠNY": 4700,
      "ĠCommunity": 4701,
      "Ġ2002": 4702,
      "ĠCare": 4703,
      "ĠChinese": 4704,
      "yer": 4705,
      "Ġagreement": 4706,
      "FL": 4707,
      "ĠAustralia": 4708,
      "Ġcounter": 4709,
      "ĠHel": 4710,
      "Ġcells": 4711,
      "ĠBob": 4712,
      "48": 4713,
      "SP": 4714,
      "cont": 4715,
      "Ġshut": 4716,
      "oston": 4717,
      "Ġunless": 4718,
      "Ġlaunch": 4719,
      "ĠLike": 4720,
      "Ġsuppl": 4721,
      "Ġnoted": 4722,
      "Ġmentioned": 4723,
      "ĠAtl": 4724,
      "iest": 4725,
      "Ġmaster": 4726,
      "ĠGrand": 4727,
      "Ġtelevision": 4728,
      "Ã¢": 4729,
      "31": 4730,
      "Ġvictory": 4731,
      "Ġbecomes": 4732,
      "Ġlabor": 4733,
      "ĠTor": 4734,
      "ĠAND": 4735,
      "Ġdoubt": 4736,
      "la": 4737,
      "Ġminor": 4738,
      "ĠDevelopment": 4739,
      "ĠMedia": 4740,
      "ĠMal": 4741,
      "esome": 4742,
      "Ġclasses": 4743,
      "Ġtend": 4744,
      "Ġseparate": 4745,
      "fast": 4746,
      "ĠJoe": 4747,
      "Ġsupply": 4748,
      "estic": 4749,
      "ĠArch": 4750,
      "ĠBur": 4751,
      "ĠRepublican": 4752,
      "Ġmodels": 4753,
      "Just": 4754,
      "47": 4755,
      "Ġsnow": 4756,
      "ĠiP": 4757,
      "ĠIll": 4758,
      "Ġsolutions": 4759,
      "imal": 4760,
      "ka": 4761,
      "Ġnotes": 4762,
      "ĠBest": 4763,
      "Ġdetermine": 4764,
      "Ġfunding": 4765,
      "ception": 4766,
      "32": 4767,
      "Ġran": 4768,
      "orry": 4769,
      "Ġcorner": 4770,
      "Ġsatisf": 4771,
      "ĠSocial": 4772,
      "Ġprepared": 4773,
      "ĠSociety": 4774,
      "Ġteaching": 4775,
      "Ġdatab": 4776,
      "Ġafternoon": 4777,
      "Ġputting": 4778,
      "iliar": 4779,
      "39": 4780,
      "ĠTO": 4781,
      "Ġath": 4782,
      "oyal": 4783,
      "Ġselected": 4784,
      "Ġadding": 4785,
      "Ġenvironmental": 4786,
      "ĠFire": 4787,
      "ĠWood": 4788,
      "Ġindependent": 4789,
      "Ġafford": 4790,
      "ĠProject": 4791,
      "reek": 4792,
      "Ġimpl": 4793,
      "Ġship": 4794,
      "Ġcomfortable": 4795,
      "Ġsongs": 4796,
      "cher": 4797,
      "Ġdelivery": 4798,
      "Ġsession": 4799,
      "ÃŃ": 4800,
      "ĠManagement": 4801,
      "ĠThomas": 4802,
      "ram": 4803,
      "Ġentry": 4804,
      "ĠIraq": 4805,
      "ĠEach": 4806,
      "Americ": 4807,
      "Ġ2001": 4808,
      "ĠVe": 4809,
      "Ġharm": 4810,
      "46": 4811,
      "Ġforms": 4812,
      "Ġguide": 4813,
      "icken": 4814,
      "ellow": 4815,
      "ĠWall": 4816,
      "Ġbatter": 4817,
      "erous": 4818,
      "ĠThanks": 4819,
      "ĠTwo": 4820,
      "Ġtransl": 4821,
      "Ġarticles": 4822,
      "ĠMicrosoft": 4823,
      "ĠDesign": 4824,
      "Ġstrategy": 4825,
      "ĠSand": 4826,
      "Ġcommand": 4827,
      "idel": 4828,
      "88": 4829,
      "Ġdraft": 4830,
      "Ġarg": 4831,
      "Ġtechnical": 4832,
      "Ġkeeping": 4833,
      "do": 4834,
      "igation": 4835,
      "??": 4836,
      "hy": 4837,
      "Ġban": 4838,
      "Ġdinner": 4839,
      "Ġmaint": 4840,
      "aked": 4841,
      "active": 4842,
      "lymp": 4843,
      "ĠAfrica": 4844,
      "Ġscored": 4845,
      "Ġlands": 4846,
      "Ġnorth": 4847,
      "Ġstream": 4848,
      "ĠAtt": 4849,
      "ĠJo": 4850,
      "Ġtele": 4851,
      "Ġwindow": 4852,
      "Ġforces": 4853,
      "ĠValley": 4854,
      "Ġholiday": 4855,
      "49": 4856,
      "uries": 4857,
      "ishes": 4858,
      "uit": 4859,
      "Ġmonitor": 4860,
      "Well": 4861,
      "iques": 4862,
      "ĠSenate": 4863,
      "Ġleague": 4864,
      "Ġeditor": 4865,
      "ĠPower": 4866,
      "ĠOpen": 4867,
      "Ġfreed": 4868,
      "rad": 4869,
      "Ġbra": 4870,
      "ENT": 4871,
      "Ġsouth": 4872,
      "Ġguarant": 4873,
      "Ġspecies": 4874,
      "rapy": 4875,
      "Ġpool": 4876,
      "ĠHam": 4877,
      "Ġleadership": 4878,
      "Ġtough": 4879,
      "Ġreligious": 4880,
      "Ġspons": 4881,
      "Ġappeared": 4882,
      "odes": 4883,
      "Ġpropos": 4884,
      "Ġcars": 4885,
      "ails": 4886,
      "resp": 4887,
      "Ġexcited": 4888,
      "ctors": 4889,
      "ĠAlthough": 4890,
      "Ġwinter": 4891,
      "ey": 4892,
      "ĠConference": 4893,
      "ĠBlue": 4894,
      "ĠCath": 4895,
      "Ġpm": 4896,
      "Ġsounds": 4897,
      "Ġyesterday": 4898,
      "ĠRad": 4899,
      "ĠHol": 4900,
      "ĠWho": 4901,
      "inct": 4902,
      "Ġartist": 4903,
      "ĠMusic": 4904,
      "Ġeventually": 4905,
      "gery": 4906,
      "Ġoperating": 4907,
      "Ġforget": 4908,
      "Ġmarkets": 4909,
      "Ġanimals": 4910,
      "Ġclient": 4911,
      "Ġlisted": 4912,
      "PR": 4913,
      "ĠCur": 4914,
      "Ġslightly": 4915,
      "Ġproposed": 4916,
      "Ġexecutive": 4917,
      "ĠEarth": 4918,
      "ĠDet": 4919,
      "ĠUnder": 4920,
      "Ġnom": 4921,
      "grad": 4922,
      "Ġinjury": 4923,
      "Ġdecisions": 4924,
      "ushed": 4925,
      "Ġasking": 4926,
      "Ġcop": 4927,
      "Ġearn": 4928,
      "eria": 4929,
      "Ġwedd": 4930,
      "ĠFood": 4931,
      "ĠLove": 4932,
      "Ġgain": 4933,
      "ga": 4934,
      "ĠRichard": 4935,
      "Ġrat": 4936,
      "ĠShow": 4937,
      "Ġbecoming": 4938,
      "levant": 4939,
      "Ġrestaurant": 4940,
      "Ġjoined": 4941,
      "Ġsupposed": 4942,
      "ompl": 4943,
      "ĠParty": 4944,
      "ĠMer": 4945,
      "going": 4946,
      "Ġincred": 4947,
      "Ġegg": 4948,
      "Ġresist": 4949,
      "Ġsmaller": 4950,
      "Ġpackage": 4951,
      "Ġtim": 4952,
      "Ġtaste": 4953,
      "ront": 4954,
      "ĠBush": 4955,
      "can": 4956,
      "ordin": 4957,
      "Ġvalues": 4958,
      "ĠOnce": 4959,
      "ĠYes": 4960,
      "Ġcoverage": 4961,
      "Ġmostly": 4962,
      "Why": 4963,
      "ĠJones": 4964,
      "edia": 4965,
      "ĠSecurity": 4966,
      "âĤ": 4967,
      "usion": 4968,
      "Ġfuel": 4969,
      "Ġcontains": 4970,
      "Ġthr": 4971,
      "Ġgall": 4972,
      "ii": 4973,
      "Ġreviews": 4974,
      "Ġtro": 4975,
      "word": 4976,
      "po": 4977,
      "Ġinternet": 4978,
      "Ġspl": 4979,
      "tered": 4980,
      "Ġmanufacture": 4981,
      "Ġartists": 4982,
      "ĠPeter": 4983,
      "08": 4984,
      "vere": 4985,
      "ĠColor": 4986,
      "Ġbalance": 4987,
      "Ġseconds": 4988,
      "Ġdefend": 4989,
      "Ġterror": 4990,
      "uclear": 4991,
      "Ġadvance": 4992,
      "ĠAut": 4993,
      "ixt": 4994,
      "Ġupdate": 4995,
      "Ġbehavior": 4996,
      "Ġcreative": 4997,
      "Ġannounce": 4998,
      "ideo": 4999,
      "Ġtesting": 5000,
      "roid": 5001,
      "Ġmanaged": 5002,
      "Ġpresence": 5003,
      "!!!": 5004,
      "NA": 5005,
      "Ġdocuments": 5006,
      "Ġelements": 5007,
      "ĠSteve": 5008,
      "Ġbutton": 5009,
      "Ġsand": 5010,
      "ait": 5011,
      "Ġholding": 5012,
      "âĤ¬": 5013,
      "Ġfailed": 5014,
      "Ġplenty": 5015,
      "Ġposts": 5016,
      "Ġwire": 5017,
      "Ġreaders": 5018,
      "Ġcitizens": 5019,
      "Ġmap": 5020,
      "ĠMartin": 5021,
      "Ġfacilities": 5022,
      "Ġmarriage": 5023,
      "Ġspect": 5024,
      "Ġkill": 5025,
      "Ġdebt": 5026,
      "Ġcoffee": 5027,
      "Ġfamous": 5028,
      "Ġresponsibility": 5029,
      "Ġpreviously": 5030,
      "orthern": 5031,
      "Ġ45": 5032,
      "LA": 5033,
      "Ġcaught": 5034,
      "Ġfill": 5035,
      "II": 5036,
      "Ġprison": 5037,
      "Ġlisten": 5038,
      "Ġsequ": 5039,
      "ĠSecret": 5040,
      "eah": 5041,
      "SA": 5042,
      "Ġpun": 5043,
      "Ġcalling": 5044,
      "Ġdollars": 5045,
      "ĠJose": 5046,
      "ript": 5047,
      "life": 5048,
      "care": 5049,
      "Ġcry": 5050,
      "illa": 5051,
      "Ġsexual": 5052,
      "Ġbasket": 5053,
      "ĠiPhone": 5054,
      "ĠOlymp": 5055,
      "ĠProfess": 5056,
      "Ġrid": 5057,
      "burg": 5058,
      "Ġteachers": 5059,
      "llig": 5060,
      "fin": 5061,
      "azz": 5062,
      "lands": 5063,
      "Ġlibrary": 5064,
      "Me": 5065,
      "Ġsugar": 5066,
      "07": 5067,
      "ĠNetwork": 5068,
      "ĠFederal": 5069,
      "Ġpolicies": 5070,
      "Ġwelcome": 5071,
      "Ġdriver": 5072,
      "Ġmaintain": 5073,
      "IR": 5074,
      "ĠOhio": 5075,
      "Ġaim": 5076,
      "Ġbul": 5077,
      "craft": 5078,
      "uke": 5079,
      "Ġactions": 5080,
      "09": 5081,
      "Add": 5082,
      "Ġforced": 5083,
      "Ġserver": 5084,
      "ĠTeam": 5085,
      "stitution": 5086,
      "ĠWestern": 5087,
      "alled": 5088,
      "Ġtight": 5089,
      "abilities": 5090,
      "free": 5091,
      "Get": 5092,
      "ĠVis": 5093,
      "icon": 5094,
      "ĠMain": 5095,
      "ola": 5096,
      "Ġraise": 5097,
      "Ġshape": 5098,
      "Ġcharges": 5099,
      "Ġschedule": 5100,
      "Ġcircum": 5101,
      "Ġprinc": 5102,
      "ulture": 5103,
      "Ġtells": 5104,
      "fortunately": 5105,
      "ĠGame": 5106,
      "verse": 5107,
      "ĠMont": 5108,
      "ĠTheir": 5109,
      "umber": 5110,
      "known": 5111,
      "ocolate": 5112,
      "ena": 5113,
      "Ġfav": 5114,
      "ĠPenn": 5115,
      "ternal": 5116,
      "enture": 5117,
      "Ġ<": 5118,
      "olars": 5119,
      "ĠVirginia": 5120,
      "rehens": 5121,
      "06": 5122,
      "ĠBoston": 5123,
      "ĠCr": 5124,
      "amin": 5125,
      "MS": 5126,
      "ania": 5127,
      "Ġride": 5128,
      "ĠÂ»": 5129,
      "Ġincor": 5130,
      "ship": 5131,
      "Ġbird": 5132,
      "Ġshared": 5133,
      "icians": 5134,
      "ograp": 5135,
      "ĠAT": 5136,
      "Ġchallenges": 5137,
      "oos": 5138,
      "ĠCard": 5139,
      "top": 5140,
      "Ġunc": 5141,
      "Ġtree": 5142,
      "Ġder": 5143,
      "ĠCarolina": 5144,
      "arsh": 5145,
      "under": 5146,
      "Ġbright": 5147,
      "ĠAcadem": 5148,
      "ĠMot": 5149,
      "ĠAward": 5150,
      "Ġallowing": 5151,
      "Ġteacher": 5152,
      "zen": 5153,
      "ĠWhe": 5154,
      "you": 5155,
      "Ġoperation": 5156,
      "Ġstorage": 5157,
      "OC": 5158,
      "oles": 5159,
      "obe": 5160,
      "ĠJackson": 5161,
      "Ġgeneration": 5162,
      "rolled": 5163,
      "Ġfilled": 5164,
      "ĠDen": 5165,
      "Ġrecip": 5166,
      "Ġsurvey": 5167,
      "ĠLibrary": 5168,
      "Ġconcerned": 5169,
      "OD": 5170,
      "Ġofficer": 5171,
      "den": 5172,
      "ini": 5173,
      "ĠEnter": 5174,
      "Ġshopping": 5175,
      "cient": 5176,
      "Ġmarried": 5177,
      "Ġflat": 5178,
      "Ġdecide": 5179,
      "Ġreference": 5180,
      "Ġpaint": 5181,
      "Ġhonest": 5182,
      "Com": 5183,
      "Ġleaves": 5184,
      "ownt": 5185,
      "Ġshooting": 5186,
      "wo": 5187,
      "Ġcommitted": 5188,
      "Ġsea": 5189,
      "Ġarchitect": 5190,
      "Ġreform": 5191,
      "ĠBet": 5192,
      "arge": 5193,
      "Ġconcerns": 5194,
      "Ġrain": 5195,
      "EW": 5196,
      "ansas": 5197,
      "Ġstated": 5198,
      "Ġyouth": 5199,
      "ferences": 5200,
      "Ġclassic": 5201,
      "Ġsecure": 5202,
      "Ġcream": 5203,
      "SS": 5204,
      "ushing": 5205,
      "Ġaccompl": 5206,
      "Ġexperienced": 5207,
      "ĠWeek": 5208,
      "ĠTre": 5209,
      "ĠSpecial": 5210,
      "Ġmouth": 5211,
      "Ġsport": 5212,
      "ker": 5213,
      "Read": 5214,
      "Ġlaun": 5215,
      "ĠReport": 5216,
      "Ġcapacity": 5217,
      "uated": 5218,
      "ĠWilliams": 5219,
      "Ġexercise": 5220,
      "Ġcore": 5221,
      "Ġmethods": 5222,
      "Ġremove": 5223,
      "Ġfactors": 5224,
      "Ġsitting": 5225,
      "Ġcart": 5226,
      "Ġnovel": 5227,
      "Ġveter": 5228,
      "Ġviolence": 5229,
      "ĠWater": 5230,
      "Ġalle": 5231,
      "ĠFrance": 5232,
      "uce": 5233,
      "ĠLong": 5234,
      "ĠJul": 5235,
      "ĠTri": 5236,
      "ournament": 5237,
      "Ġinterp": 5238,
      "ĠToday": 5239,
      "Ġ36": 5240,
      "atin": 5241,
      "comp": 5242,
      "arp": 5243,
      "ifts": 5244,
      "Ġrise": 5245,
      "Ġvision": 5246,
      "Ġcounty": 5247,
      "osen": 5248,
      "Ġpractices": 5249,
      "Ġwalking": 5250,
      "ĠAfrican": 5251,
      "Ġmissing": 5252,
      "Ġbath": 5253,
      "Ġspeech": 5254,
      "Ġcorporate": 5255,
      "Ġseat": 5256,
      "Ġresearc": 5257,
      "Ġconflic": 5258,
      "Ġbrings": 5259,
      "icit": 5260,
      "ĠUse": 5261,
      "oted": 5262,
      "bo": 5263,
      "ĠFort": 5264,
      "Des": 5265,
      "ĠBeach": 5266,
      "Ġfocused": 5267,
      "Sp": 5268,
      "Ġmedium": 5269,
      "ĠAL": 5270,
      "nergy": 5271,
      "Ġagreed": 5272,
      "atures": 5273,
      "Ġdedicated": 5274,
      "Ġassum": 5275,
      "ĠCheck": 5276,
      "Ġwitness": 5277,
      "04": 5278,
      "nel": 5279,
      "ĠNC": 5280,
      "Ġlived": 5281,
      "Ġcompar": 5282,
      "Ġsustain": 5283,
      "ampionship": 5284,
      "Ġmovies": 5285,
      "Ġvideos": 5286,
      "Ġcritic": 5287,
      "ĠWomen": 5288,
      "osis": 5289,
      "phas": 5290,
      "ĠStr": 5291,
      "cles": 5292,
      "Ġconven": 5293,
      "ĠDou": 5294,
      "Ġdebate": 5295,
      "Ġdiagn": 5296,
      "See": 5297,
      "ĠDVD": 5298,
      "ression": 5299,
      "Ġthoughts": 5300,
      "Ġtrail": 5301,
      "ĠAri": 5302,
      "Ġbrows": 5303,
      "Ġabsolutely": 5304,
      "Ġjudge": 5305,
      "Ġfacility": 5306,
      "Ġplants": 5307,
      "ht": 5308,
      "iency": 5309,
      "Ġadvanced": 5310,
      "Ġchanging": 5311,
      "Fr": 5312,
      "alog": 5313,
      "ya": 5314,
      "ĠRE": 5315,
      "Ġnewsp": 5316,
      "Ġstret": 5317,
      "ĠID": 5318,
      "UN": 5319,
      "CE": 5320,
      "Ġsav": 5321,
      "Ġmotor": 5322,
      "Ġboo": 5323,
      "Ġconsid": 5324,
      "rive": 5325,
      "Ġcommunication": 5326,
      "Ġapart": 5327,
      "Ġcampus": 5328,
      "ĠFamily": 5329,
      "Ġintended": 5330,
      "ĠAdminist": 5331,
      "ourney": 5332,
      "Ġenem": 5333,
      "Ġcombination": 5334,
      "Ġwriter": 5335,
      "ĠOk": 5336,
      "coh": 5337,
      "ĠLast": 5338,
      "03": 5339,
      "icate": 5340,
      "âĦ": 5341,
      "Ġarrived": 5342,
      "west": 5343,
      "lastname": 5344,
      "ĠSing": 5345,
      "Ġinfluence": 5346,
      "eed": 5347,
      "Ġhandle": 5348,
      "Ġexplain": 5349,
      "Ġofficers": 5350,
      "Ġmanage": 5351,
      "Oh": 5352,
      "Ġdie": 5353,
      "Ġfemale": 5354,
      "Ġguard": 5355,
      "Ġpanel": 5356,
      "Ġapproximately": 5357,
      "Ġexperiences": 5358,
      "Ġinitial": 5359,
      "Ġdu": 5360,
      "ien": 5361,
      "ĠIr": 5362,
      "Ġwinner": 5363,
      "ĠPac": 5364,
      "tion": 5365,
      "Ġunits": 5366,
      "Ġcharged": 5367,
      "Ġstores": 5368,
      "ĠPolice": 5369,
      "Ġfamiliar": 5370,
      "Ġstopped": 5371,
      "Ġresident": 5372,
      "Ġwedding": 5373,
      "Ġsector": 5374,
      "ĠMuseum": 5375,
      "Ġworry": 5376,
      "âĦ¢": 5377,
      "ias": 5378,
      "ĠKn": 5379,
      "ĠDown": 5380,
      "Ġmort": 5381,
      "ĠCup": 5382,
      "Ġtask": 5383,
      "ĠAP": 5384,
      "ita": 5385,
      "Ġveget": 5386,
      "Ġencourage": 5387,
      "Ġcities": 5388,
      "Ġcombined": 5389,
      "Ġintellig": 5390,
      "ĠHy": 5391,
      "Ġdistance": 5392,
      "CT": 5393,
      "ĠNor": 5394,
      "Ġsets": 5395,
      "Ġ500": 5396,
      "Ġforg": 5397,
      "cel": 5398,
      ":||": 5399,
      "Ġcontest": 5400,
      "rier": 5401,
      "ĠQue": 5402,
      "Ġnumerous": 5403,
      "Ġworse": 5404,
      "Ġserving": 5405,
      "anish": 5406,
      "Ġalternative": 5407,
      "Ġquiet": 5408,
      "Ġyes": 5409,
      "road": 5410,
      "hab": 5411,
      "Ġselling": 5412,
      "LC": 5413,
      "Ġenjoyed": 5414,
      "Ġapproved": 5415,
      "bur": 5416,
      "Ġstars": 5417,
      "Ġhero": 5418,
      "ĠHaw": 5419,
      "Ġcommittee": 5420,
      "Ġmine": 5421,
      "ĠBack": 5422,
      "Every": 5423,
      "Your": 5424,
      "Ste": 5425,
      "Ġprin": 5426,
      "unction": 5427,
      "Ġassistance": 5428,
      "Ġremoved": 5429,
      "Ed": 5430,
      "Ġtwice": 5431,
      "Ġswitch": 5432,
      "Ġcrime": 5433,
      "Ġsides": 5434,
      "ĠRev": 5435,
      "Ġeating": 5436,
      "App": 5437,
      "Ġrooms": 5438,
      "anda": 5439,
      "Ġformat": 5440,
      "Ġsty": 5441,
      "Ġacademic": 5442,
      "Ġhonor": 5443,
      "According": 5444,
      "ĠLee": 5445,
      "ĠOld": 5446,
      "unning": 5447,
      "Ġclimate": 5448,
      "ĠAccording": 5449,
      "ĠMedical": 5450,
      "77": 5451,
      "Ġedge": 5452,
      "Ġoccup": 5453,
      "Ġmissed": 5454,
      "Ġphil": 5455,
      "56": 5456,
      "Ġtheory": 5457,
      "Ġcraft": 5458,
      "dden": 5459,
      "Ġcab": 5460,
      "Qu": 5461,
      "ĠAcc": 5462,
      "Ġpassion": 5463,
      "Ġkitchen": 5464,
      "Ġfeels": 5465,
      "Ġguests": 5466,
      "odd": 5467,
      "ĠForm": 5468,
      "met": 5469,
      "Ġinterests": 5470,
      "Ġexciting": 5471,
      "ĠCEO": 5472,
      "actions": 5473,
      "Ġcloud": 5474,
      "Ġhun": 5475,
      "Ġremaining": 5476,
      "Mr": 5477,
      "Ġscheduled": 5478,
      "ĠIran": 5479,
      "ocation": 5480,
      "Ġstanding": 5481,
      "Ġsister": 5482,
      "DF": 5483,
      "Ġtrouble": 5484,
      "Ġfreedom": 5485,
      "ĠMel": 5486,
      "Ġsym": 5487,
      "02": 5488,
      "ĠStand": 5489,
      "unior": 5490,
      "ĠIns": 5491,
      "Ġdance": 5492,
      "ĠTown": 5493,
      "Ġessential": 5494,
      "cean": 5495,
      "Ġ32": 5496,
      "Ġconcent": 5497,
      "cipl": 5498,
      "Ġanimal": 5499,
      "Ġbuying": 5500,
      "ĠId": 5501,
      "ĠMur": 5502,
      "Ġauthority": 5503,
      "Ġcolors": 5504,
      "Che": 5505,
      "Ġbond": 5506,
      "secut": 5507,
      "Ġmagazine": 5508,
      "Ġadministr": 5509,
      "Ġlabel": 5510,
      "Ġperformed": 5511,
      "orters": 5512,
      "odies": 5513,
      "Ġtun": 5514,
      "Ġnone": 5515,
      "Ġrecipe": 5516,
      "ilding": 5517,
      "Ġcommission": 5518,
      "SU": 5519,
      "Ġexpensive": 5520,
      "Ġagencies": 5521,
      "ĠFrancisco": 5522,
      "ĠNOT": 5523,
      "Ġju": 5524,
      "Ġreserved": 5525,
      "Ġmetal": 5526,
      "ems": 5527,
      "ĠOffic": 5528,
      "Ġconcern": 5529,
      "ĠSeries": 5530,
      "Ġtips": 5531,
      "ĠJon": 5532,
      "Ġmeasures": 5533,
      "Ġbegins": 5534,
      "equ": 5535,
      "Ġpush": 5536,
      "iat": 5537,
      "Ġtopic": 5538,
      "ĠHuman": 5539,
      "Ġdelic": 5540,
      "Ġhits": 5541,
      "Ġjoint": 5542,
      "ĠRyan": 5543,
      "!âĢĿ": 5544,
      "ivered": 5545,
      "Ġtickets": 5546,
      "Ġsudden": 5547,
      "Ġconsumers": 5548,
      "Ġtelling": 5549,
      "adian": 5550,
      "Ġpicked": 5551,
      "ĠCall": 5552,
      "Ġstorm": 5553,
      "Ġring": 5554,
      "Ġtaxes": 5555,
      "ĠEconom": 5556,
      "Ġdepart": 5557,
      "ĠSpring": 5558,
      "ĠDi": 5559,
      "ading": 5560,
      "Any": 5561,
      "Ġfailure": 5562,
      "Ġapplied": 5563,
      "Ġcas": 5564,
      "ĠIts": 5565,
      "ĠMexico": 5566,
      "ĠMichigan": 5567,
      "ĠBoth": 5568,
      "rag": 5569,
      "Ġcontext": 5570,
      "59": 5571,
      "water": 5572,
      "Ġdatabase": 5573,
      "Ġelement": 5574,
      "ĠHen": 5575,
      "Ġintroduced": 5576,
      "Ġdetect": 5577,
      "Ġamb": 5578,
      "Ġawesome": 5579,
      "razy": 5580,
      "Ġmanner": 5581,
      "ĠBo": 5582,
      "Ġtotally": 5583,
      "hat": 5584,
      "ĠWal": 5585,
      "Ġpredict": 5586,
      "Ġrelevant": 5587,
      "ĠFund": 5588,
      "eal": 5589,
      "Ġtom": 5590,
      "mond": 5591,
      "ano": 5592,
      "Ġmenu": 5593,
      "ĠSports": 5594,
      "ulous": 5595,
      "Ġstruct": 5596,
      "Ġearned": 5597,
      "Ġfriendly": 5598,
      "Ġturns": 5599,
      "Ġconversation": 5600,
      "Te": 5601,
      "aniel": 5602,
      "Ġcultural": 5603,
      "cluding": 5604,
      "Ġleads": 5605,
      "Ġweak": 5606,
      "UT": 5607,
      "Ġinvestigation": 5608,
      "Ġshots": 5609,
      "Ġissued": 5610,
      "ĠDivision": 5611,
      "Ġcrisis": 5612,
      "Ġdetermined": 5613,
      "Ġobl": 5614,
      "ĠWild": 5615,
      "ciples": 5616,
      "Ġdrugs": 5617,
      "ingly": 5618,
      "hand": 5619,
      "42": 5620,
      "Ġflex": 5621,
      "ĠIsl": 5622,
      "Ġboys": 5623,
      "ĠChief": 5624,
      "rics": 5625,
      "Ġcrim": 5626,
      "ployment": 5627,
      "Ġpurposes": 5628,
      "Ġeducational": 5629,
      "Ġtrees": 5630,
      "Ġefficient": 5631,
      "ĠTechnology": 5632,
      "âĢĿ,": 5633,
      "Ġsalt": 5634,
      "Ġbutter": 5635,
      "Ġseek": 5636,
      "fficient": 5637,
      "ĠMen": 5638,
      "Ġsharing": 5639,
      "acle": 5640,
      "Ġcontro": 5641,
      "ommod": 5642,
      "Ġdisappoint": 5643,
      "mar": 5644,
      "Ġconsumer": 5645,
      "illy": 5646,
      "ĠDuring": 5647,
      "ĠGeorg": 5648,
      "Ġsac": 5649,
      "Ġrealize": 5650,
      "Ġathlet": 5651,
      "Ġdiscovered": 5652,
      "Ġsmooth": 5653,
      "ria": 5654,
      "Ġupdated": 5655,
      "ĠClick": 5656,
      "arian": 5657,
      "otic": 5658,
      "Ġends": 5659,
      "!)": 5660,
      "86": 5661,
      "Let": 5662,
      "ĠSa": 5663,
      "Ġingred": 5664,
      "Ġneighborhood": 5665,
      "Ġimproved": 5666,
      "ubs": 5667,
      "ĠEngine": 5668,
      "Ġuns": 5669,
      "Ġpossibly": 5670,
      "Ġbusy": 5671,
      "ĠRights": 5672,
      "Ġdiet": 5673,
      "Ġestate": 5674,
      "Ġvalid": 5675,
      "Ġcourses": 5676,
      "SE": 5677,
      "Ġdyn": 5678,
      "Ġconnected": 5679,
      "irty": 5680,
      "Ġrelax": 5681,
      "ĠHotel": 5682,
      "Up": 5683,
      "Ġpayment": 5684,
      "inch": 5685,
      "ighter": 5686,
      "Ġfly": 5687,
      "real": 5688,
      "Ġgreatest": 5689,
      "ĠTur": 5690,
      "Ġteach": 5691,
      "Ġaid": 5692,
      "Ġmo": 5693,
      "Ġvisual": 5694,
      "Ġsupported": 5695,
      "ultural": 5696,
      "Ġcalc": 5697,
      "ĠElect": 5698,
      "Ġpregn": 5699,
      "Click": 5700,
      "Ġtonight": 5701,
      "ĠBoy": 5702,
      "ĠOl": 5703,
      "Ġtemperature": 5704,
      "osoph": 5705,
      "pected": 5706,
      "Ġfee": 5707,
      "ĠColumb": 5708,
      "from": 5709,
      "ĠGermany": 5710,
      "ĠWay": 5711,
      "ĠCharl": 5712,
      "ĠOnly": 5713,
      "ĠVict": 5714,
      "Ġidentify": 5715,
      "related": 5716,
      "reens": 5717,
      "ĠLear": 5718,
      "Ġtrib": 5719,
      "Ġregistered": 5720,
      "arly": 5721,
      "ician": 5722,
      "ĠKore": 5723,
      "Ġwearing": 5724,
      "Ġnegative": 5725,
      "About": 5726,
      "ĠDig": 5727,
      "Ġcheap": 5728,
      "Ġemergency": 5729,
      "oti": 5730,
      "ĠMiddle": 5731,
      "Ġhundreds": 5732,
      "Ġexchange": 5733,
      "Ġattacks": 5734,
      "BI": 5735,
      "OV": 5736,
      "Ġfellow": 5737,
      "iser": 5738,
      "ĠFil": 5739,
      "Ġerror": 5740,
      "Ġtables": 5741,
      "Ġtow": 5742,
      "Ġhousing": 5743,
      "erves": 5744,
      "Ġadults": 5745,
      "Ġcloser": 5746,
      "Ġanywhere": 5747,
      "ĠRomney": 5748,
      "First": 5749,
      "astern": 5750,
      "kes": 5751,
      "ossible": 5752,
      "ĠLook": 5753,
      "Ġcontem": 5754,
      "Ġbroken": 5755,
      "Ġadapt": 5756,
      "Ġsurgery": 5757,
      "Ġimportance": 5758,
      "Ġtheme": 5759,
      "Ġbelief": 5760,
      "ev": 5761,
      "Ġburn": 5762,
      "Ġaccident": 5763,
      "col": 5764,
      "MA": 5765,
      "ĠArts": 5766,
      "Ġfilms": 5767,
      "Ġconfidence": 5768,
      "41": 5769,
      "Ġdesk": 5770,
      "Ġnuclear": 5771,
      "prise": 5772,
      "ĠLin": 5773,
      "Ġcommitment": 5774,
      "Ġpal": 5775,
      "atre": 5776,
      "Ġdial": 5777,
      "Ġenforce": 5778,
      "Ġseeking": 5779,
      "Ġaudio": 5780,
      "Ġpitch": 5781,
      "idden": 5782,
      "isters": 5783,
      "ĠYOU": 5784,
      "Ġmode": 5785,
      "Ġpoly": 5786,
      "essions": 5787,
      "Ġuniversity": 5788,
      "Ġlunch": 5789,
      "Ġtests": 5790,
      "lines": 5791,
      "Ġrow": 5792,
      "Ġbound": 5793,
      "ĠON": 5794,
      "Ġsad": 5795,
      "awn": 5796,
      "alian": 5797,
      "Ġfle": 5798,
      "Ġbringing": 5799,
      "urban": 5800,
      "Ġrevenue": 5801,
      "Res": 5802,
      "En": 5803,
      "ĠEnergy": 5804,
      "Ġcircumst": 5805,
      "Ġappearance": 5806,
      "Ġille": 5807,
      "Ġcuts": 5808,
      "list": 5809,
      "Ġadvoc": 5810,
      "Ġherself": 5811,
      "Or": 5812,
      "Ġprofile": 5813,
      "door": 5814,
      "Ġrot": 5815,
      "Ġspecifically": 5816,
      "ĠJewish": 5817,
      "IF": 5818,
      "Ġdecades": 5819,
      "ĠHistory": 5820,
      "ĠMake": 5821,
      "ĠCommun": 5822,
      "cious": 5823,
      "Ġdecor": 5824,
      "Ġmir": 5825,
      "Ġscientific": 5826,
      "Ġhelpful": 5827,
      "uts": 5828,
      "hop": 5829,
      "Ġpromote": 5830,
      "ĠYoung": 5831,
      "Ġsigns": 5832,
      "Ġdestroy": 5833,
      "ghan": 5834,
      "Ġexplained": 5835,
      "ĠSar": 5836,
      "Ġbrown": 5837,
      "ĠDef": 5838,
      "Ġthick": 5839,
      "Ġsquare": 5840,
      "aren": 5841,
      "irmed": 5842,
      "Ġarms": 5843,
      "Ġfold": 5844,
      "ĠPan": 5845,
      "Ġhur": 5846,
      "ĠSk": 5847,
      "43": 5848,
      "Ġbat": 5849,
      "Ġthread": 5850,
      "Ġtack": 5851,
      "Ġwaste": 5852,
      "Ġcoast": 5853,
      "rical": 5854,
      "Ġexperts": 5855,
      "Ġcorn": 5856,
      "Ġtechniques": 5857,
      "Ġobvious": 5858,
      "ĠReal": 5859,
      "Ġfirstname": 5860,
      "elly": 5861,
      "ĠFair": 5862,
      "Ġparticipate": 5863,
      "Ġtradition": 5864,
      "ĠJustice": 5865,
      "ffect": 5866,
      "Ġmental": 5867,
      "Ġworst": 5868,
      "Ġforth": 5869,
      "season": 5870,
      "Ġemphas": 5871,
      "ĠIP": 5872,
      "rehensive": 5873,
      "cohol": 5874,
      "Ġrecorded": 5875,
      "Ġunivers": 5876,
      "Ġsubstant": 5877,
      "Ġscale": 5878,
      "ĠView": 5879,
      "Ġlicense": 5880,
      "Ġteen": 5881,
      "Ġconsequ": 5882,
      "Ġcriminal": 5883,
      "Ġcrew": 5884,
      "Ġpulled": 5885,
      "yard": 5886,
      "Ġrapid": 5887,
      "ĠCy": 5888,
      "However": 5889,
      "Ġsympt": 5890,
      "Yes": 5891,
      "ĠGal": 5892,
      "58": 5893,
      "199": 5894,
      "ĠDan": 5895,
      "Ġment": 5896,
      "Ġsam": 5897,
      "Ġdiscl": 5898,
      "Ġplanned": 5899,
      "Ġconserv": 5900,
      "ĠOrgan": 5901,
      "57": 5902,
      "een": 5903,
      "Ġbeauty": 5904,
      "uration": 5905,
      "ĠCatholic": 5906,
      "comm": 5907,
      "Ġorders": 5908,
      "Ġdiscount": 5909,
      "mosp": 5910,
      "Ġvan": 5911,
      "lets": 5912,
      "Ġaccepted": 5913,
      "ĠGen": 5914,
      "Ġimagine": 5915,
      "Ġelimin": 5916,
      "inations": 5917,
      "ĠBi": 5918,
      "Ġgarden": 5919,
      "Ġobt": 5920,
      "CA": 5921,
      "ĠHD": 5922,
      "ĠMo": 5923,
      "Ġimmig": 5924,
      "Ġagent": 5925,
      "Ġweapons": 5926,
      "Ġfiled": 5927,
      "Ġfighting": 5928,
      "TV": 5929,
      "ĠGall": 5930,
      "uations": 5931,
      "Ġcarried": 5932,
      "Ġinstance": 5933,
      "Ġentered": 5934,
      "Ġinternal": 5935,
      "Ġarrange": 5936,
      "Other": 5937,
      "Ġphotograph": 5938,
      "Ġvolume": 5939,
      "ĠTest": 5940,
      "Ġdelivered": 5941,
      "reets": 5942,
      "Ġsurprise": 5943,
      "ĠJapanese": 5944,
      "Ġgather": 5945,
      "Ġoccasion": 5946,
      "ĠÂ©": 5947,
      "Tr": 5948,
      "Sc": 5949,
      "Ġlosing": 5950,
      "ĠStep": 5951,
      "uable": 5952,
      "respond": 5953,
      "Ġfolks": 5954,
      "Ġmagn": 5955,
      "anged": 5956,
      "Ġequal": 5957,
      "Ġdistribution": 5958,
      "Ġentirely": 5959,
      "Ġflight": 5960,
      "Ġcandidate": 5961,
      "Ġmale": 5962,
      "ĠMatt": 5963,
      "Ġindeed": 5964,
      "rene": 5965,
      "Ġshipping": 5966,
      "Ġproceed": 5967,
      "Ġchemical": 5968,
      "gas": 5969,
      "Ġideal": 5970,
      "cap": 5971,
      "Ġvisitors": 5972,
      "Ġcreation": 5973,
      "Ġwalked": 5974,
      "Ġlaugh": 5975,
      "Ġbreast": 5976,
      "Ġpu": 5977,
      "Ġregister": 5978,
      "Ġdropped": 5979,
      "Can": 5980,
      "Ġmillions": 5981,
      "ĠMa": 5982,
      "Ġguest": 5983,
      "Ġbigger": 5984,
      "ĠMaybe": 5985,
      "ĠSecond": 5986,
      "Ġfruit": 5987,
      "Ġrare": 5988,
      "Ġlaunched": 5989,
      "ĠCA": 5990,
      "ĠMinister": 5991,
      "Ġhate": 5992,
      "Ġrough": 5993,
      "Ġscr": 5994,
      "bu": 5995,
      "ocket": 5996,
      "sts": 5997,
      "ĠOnline": 5998,
      "Ġaccommod": 5999,
      "Most": 6000,
      "ĠOper": 6001,
      "Ġpositions": 6002,
      "Ġportion": 6003,
      "Ġang": 6004,
      "Ġfaculty": 6005,
      "Ġsuit": 6006,
      "Ġpaying": 6007,
      "ĠSup": 6008,
      "Ġpolitics": 6009,
      "Ġreduced": 6010,
      "Ġunf": 6011,
      "Ġparking": 6012,
      "Ġlocations": 6013,
      "ĠAdv": 6014,
      "Ġidentified": 6015,
      "Ġfees": 6016,
      "Ġfigures": 6017,
      ".|": 6018,
      "Su": 6019,
      "ĠCorpor": 6020,
      "uthors": 6021,
      "Ġrelatively": 6022,
      "Ġtermin": 6023,
      "eper": 6024,
      "sembly": 6025,
      "Ġourselves": 6026,
      "tenance": 6027,
      "Ġconfig": 6028,
      "vy": 6029,
      "ups": 6030,
      "Ġminimum": 6031,
      "GE": 6032,
      "ario": 6033,
      "Ġlegislation": 6034,
      "Ġdram": 6035,
      "ometimes": 6036,
      "Ġhurt": 6037,
      "Ġpure": 6038,
      "ĠMic": 6039,
      "Ġextensive": 6040,
      "mes": 6041,
      "Ġsuggested": 6042,
      "ĠSher": 6043,
      "arts": 6044,
      "oman": 6045,
      "Ġinstitutions": 6046,
      "Ġregional": 6047,
      "Ġplastic": 6048,
      "Ġvir": 6049,
      "ĠThose": 6050,
      "Ġpurchased": 6051,
      "Ġtreated": 6052,
      "grade": 6053,
      "ĠArmy": 6054,
      "owntown": 6055,
      "Ġresearchers": 6056,
      "lo": 6057,
      "Ġfaster": 6058,
      "Ġinvolve": 6059,
      "Ġunlike": 6060,
      "Ġmeat": 6061,
      "Ġusual": 6062,
      "Ġreceiving": 6063,
      "cknow": 6064,
      "Ġbanks": 6065,
      "ĠHospital": 6066,
      "ĠAud": 6067,
      "Ġrac": 6068,
      "Ġjourney": 6069,
      "ĠSouthern": 6070,
      "clusion": 6071,
      "ĠCat": 6072,
      "ĠFar": 6073,
      "Ġframe": 6074,
      "Ġdetailed": 6075,
      "fection": 6076,
      "Ġodd": 6077,
      "ĠSqu": 6078,
      "Ġalleged": 6079,
      "ĠDev": 6080,
      "gs": 6081,
      "Ġfeatured": 6082,
      "Ġ1999": 6083,
      "ache": 6084,
      "Ġfurn": 6085,
      "cribe": 6086,
      "==": 6087,
      "Ġfollows": 6088,
      "iration": 6089,
      "Ġexplore": 6090,
      "Ġgraduate": 6091,
      "aylor": 6092,
      "Ġspeaking": 6093,
      "ĠWin": 6094,
      "Ġemployee": 6095,
      "Ġbroadcast": 6096,
      "ĠLight": 6097,
      "Ġmilk": 6098,
      "Ġoffensive": 6099,
      "Ġdemocr": 6100,
      "Ġking": 6101,
      "Ġcandidates": 6102,
      "Ġchocolate": 6103,
      "Ġrelationships": 6104,
      "Ġtomorrow": 6105,
      "ĠProv": 6106,
      "ench": 6107,
      "Ġargument": 6108,
      "TA": 6109,
      "Ġhasn": 6110,
      "aser": 6111,
      "Ġdiscover": 6112,
      "arry": 6113,
      "âĢĺ": 6114,
      "Ġcheese": 6115,
      "Ġsurprised": 6116,
      "Ġelectronic": 6117,
      "away": 6118,
      "ora": 6119,
      "Ġoptim": 6120,
      "Ġappeal": 6121,
      "Ġswim": 6122,
      "Ġmeetings": 6123,
      "osite": 6124,
      "Ġmut": 6125,
      "Ġconfident": 6126,
      "Ġfort": 6127,
      "Ġmotion": 6128,
      "Ġbread": 6129,
      "ĠArab": 6130,
      "ĠChildren": 6131,
      "Ġepisode": 6132,
      "Ġspoke": 6133,
      "li": 6134,
      "Ġsole": 6135,
      "ogue": 6136,
      "rible": 6137,
      "78": 6138,
      "Ġplate": 6139,
      "American": 6140,
      "Dr": 6141,
      "ĠFull": 6142,
      "Ġpil": 6143,
      "Ġrom": 6144,
      "Ġfactor": 6145,
      "Us": 6146,
      "Ġliqu": 6147,
      "Ġmatters": 6148,
      "ĠGeorgia": 6149,
      "Ġrub": 6150,
      "Ġordered": 6151,
      "Ġgrab": 6152,
      "Ġfunny": 6153,
      "ingu": 6154,
      "Ġsick": 6155,
      "iner": 6156,
      "ĠOR": 6157,
      "Ġincorpor": 6158,
      "Ġwealth": 6159,
      "Ġchapter": 6160,
      "Ġbelong": 6161,
      "Ġrecommended": 6162,
      "fol": 6163,
      "Thanks": 6164,
      "Ġutil": 6165,
      "Ġparticipants": 6166,
      "foot": 6167,
      "Ġresource": 6168,
      "Ġ300": 6169,
      "orse": 6170,
      "ML": 6171,
      "Ġlit": 6172,
      "Ġdogs": 6173,
      "Ġbeach": 6174,
      "hered": 6175,
      "ĠHead": 6176,
      "Ġcauses": 6177,
      "ĠLead": 6178,
      "rate": 6179,
      "gypt": 6180,
      "66": 6181,
      "Ġgrew": 6182,
      "Ġcategory": 6183,
      "Ġscript": 6184,
      "Ġbelieved": 6185,
      "iveness": 6186,
      "2011": 6187,
      "rison": 6188,
      "Ġbasketball": 6189,
      "ĠAbout": 6190,
      "Ġdegrees": 6191,
      "Ġneck": 6192,
      "Ġbike": 6193,
      "Ġiron": 6194,
      "Ġnative": 6195,
      "Ġresol": 6196,
      "Ġadvertising": 6197,
      "Ġlock": 6198,
      "gend": 6199,
      "ĠAff": 6200,
      "Ġ48": 6201,
      "aks": 6202,
      "ef": 6203,
      "Ġillustr": 6204,
      "Ġspokes": 6205,
      "Ġvehicles": 6206,
      "Am": 6207,
      "Ġconsidering": 6208,
      "rastructure": 6209,
      "Ġcable": 6210,
      "Ġbuildings": 6211,
      "ĠCharles": 6212,
      "ĠCam": 6213,
      "Ġok": 6214,
      "ĠThank": 6215,
      "hus": 6216,
      "arrow": 6217,
      "ĠRon": 6218,
      "ta": 6219,
      "ato": 6220,
      "Ġproperly": 6221,
      "ĠWalk": 6222,
      "ĠHolly": 6223,
      "otes": 6224,
      "Ġacknow": 6225,
      "Ġadm": 6226,
      "Ġjustice": 6227,
      "Ġcounsel": 6228,
      "abled": 6229,
      "ĠField": 6230,
      "Ġmusical": 6231,
      "Ġperman": 6232,
      "alse": 6233,
      "ĠBell": 6234,
      "John": 6235,
      "Ġhistorical": 6236,
      "Ind": 6237,
      "eder": 6238,
      "ancer": 6239,
      "ĠColorado": 6240,
      "ĠMS": 6241,
      "Ġrecognized": 6242,
      "Ġprofessionals": 6243,
      "rooms": 6244,
      "ĠAriz": 6245,
      "ĠTake": 6246,
      "ĠMP": 6247,
      "Ġtalent": 6248,
      "Ġholds": 6249,
      "Ġhell": 6250,
      "Ġprepare": 6251,
      "Pe": 6252,
      "Ġsusp": 6253,
      "Ġperspective": 6254,
      "ĠAR": 6255,
      "Ġoffense": 6256,
      "Ġfields": 6257,
      "Ġmassive": 6258,
      "ĠBlog": 6259,
      "Ġdesire": 6260,
      "EST": 6261,
      "Ġinstalled": 6262,
      "Ġbaseball": 6263,
      "ĠKent": 6264,
      "Ġwarrant": 6265,
      "Ġedition": 6266,
      "Ġdecade": 6267,
      "ĠEll": 6268,
      "CS": 6269,
      "zy": 6270,
      "Ġshoes": 6271,
      "Ġsymb": 6272,
      "Ġ01": 6273,
      "Ġproperties": 6274,
      "owing": 6275,
      "Ġapparently": 6276,
      "Ġtransform": 6277,
      "Ġinput": 6278,
      "Ġowned": 6279,
      "Ġcro": 6280,
      "ĠDie": 6281,
      "ĠCoast": 6282,
      "Spe": 6283,
      "Also": 6284,
      "Rep": 6285,
      "Ġnoticed": 6286,
      "Ġconver": 6287,
      "ĠWhere": 6288,
      "Since": 6289,
      "ĠAndrew": 6290,
      "Ġrecovery": 6291,
      "ĠLand": 6292,
      "cluded": 6293,
      "ĠSecretary": 6294,
      "ĠRay": 6295,
      "Ġmotiv": 6296,
      "ml": 6297,
      "adium": 6298,
      "abet": 6299,
      "Ġconducted": 6300,
      "ansion": 6301,
      "Ġdangerous": 6302,
      "eless": 6303,
      "ĠCH": 6304,
      "Ġtechnologies": 6305,
      "ĠBrand": 6306,
      "Of": 6307,
      "Ġoutput": 6308,
      "ĠGra": 6309,
      "Ġatmosp": 6310,
      "ĠPhot": 6311,
      "ĠMid": 6312,
      "Ġabuse": 6313,
      "Ġgro": 6314,
      "date": 6315,
      "Ġturning": 6316,
      "Ġdefensive": 6317,
      "Ġhorse": 6318,
      "Ġentertainment": 6319,
      "ĠInstead": 6320,
      "Col": 6321,
      "Ġdomestic": 6322,
      ",'": 6323,
      "Ġaccounts": 6324,
      "Ġcircumstances": 6325,
      "ework": 6326,
      "Then": 6327,
      "Ġcouncil": 6328,
      "Ġanswers": 6329,
      "Ġchosen": 6330,
      "ih": 6331,
      "AY": 6332,
      "Ġid": 6333,
      "Ġfro": 6334,
      "ĠList": 6335,
      "Ġhighlight": 6336,
      "Ġupper": 6337,
      "Ġaffected": 6338,
      "Ġcompetitive": 6339,
      "obby": 6340,
      "Ġformed": 6341,
      "ĠUt": 6342,
      "Ġchicken": 6343,
      "agon": 6344,
      "Ġinterpret": 6345,
      "52": 6346,
      "ensions": 6347,
      "Ġtypically": 6348,
      "Ġstatements": 6349,
      "Ġupdates": 6350,
      "Ġnegoti": 6351,
      "ĠKenn": 6352,
      "Ġincident": 6353,
      "ĠHun": 6354,
      "ĠGar": 6355,
      "Ġretire": 6356,
      "aints": 6357,
      "Ġconvention": 6358,
      "agues": 6359,
      "Ġdelay": 6360,
      "Ġvoters": 6361,
      "Ġven": 6362,
      "new": 6363,
      "Ġmaximum": 6364,
      "Ġcolumn": 6365,
      "Ġsupporting": 6366,
      "orough": 6367,
      "Ġrand": 6368,
      "Ġcrazy": 6369,
      "Ġreasonable": 6370,
      "iability": 6371,
      "iami": 6372,
      "appy": 6373,
      "inson": 6374,
      "Ġboat": 6375,
      "ĠAcademy": 6376,
      "umin": 6377,
      "Ġprove": 6378,
      "ERS": 6379,
      "Ġaspects": 6380,
      "rors": 6381,
      "obs": 6382,
      "iture": 6383,
      "ibilities": 6384,
      "ĠCustom": 6385,
      "Ġobviously": 6386,
      "Ġtwe": 6387,
      "ums": 6388,
      "Ġcopyright": 6389,
      "oking": 6390,
      "Ġreporting": 6391,
      "Ġoppon": 6392,
      "ĠHave": 6393,
      "Ġtaught": 6394,
      "ye": 6395,
      "ĠFour": 6396,
      "Ġupcoming": 6397,
      "Ġanyway": 6398,
      "ĠMarket": 6399,
      "Ġtalks": 6400,
      "Copyright": 6401,
      "Ġresolution": 6402,
      "Ġmessages": 6403,
      "Ġpit": 6404,
      "Ġmel": 6405,
      "Ġinstitution": 6406,
      "ĠCook": 6407,
      "iors": 6408,
      "54": 6409,
      "Ġscholars": 6410,
      "Ġbull": 6411,
      "Ġpassing": 6412,
      "Â©": 6413,
      "iana": 6414,
      "Ġhoping": 6415,
      "Ġhouses": 6416,
      "Ġbowl": 6417,
      "ĠKen": 6418,
      "ĠJersey": 6419,
      "eries": 6420,
      "ĠFestival": 6421,
      "Ġdiss": 6422,
      "Ġec": 6423,
      "bour": 6424,
      "Ġpresentation": 6425,
      "Im": 6426,
      "Ġprocesses": 6427,
      "law": 6428,
      "Ġrenew": 6429,
      "Ġflo": 6430,
      "Ġshares": 6431,
      "isation": 6432,
      "Ġreturns": 6433,
      "ĠAuthor": 6434,
      "Ġbelieves": 6435,
      "Ġgrown": 6436,
      "Ġrevealed": 6437,
      "Ġquant": 6438,
      "rich": 6439,
      "Over": 6440,
      "angers": 6441,
      "ĠNight": 6442,
      "mary": 6443,
      "ĠProduct": 6444,
      "Ġinfo": 6445,
      "ala": 6446,
      "inton": 6447,
      "ĠLab": 6448,
      "Mar": 6449,
      "ĠAfghan": 6450,
      "Ġinspired": 6451,
      "Ġamend": 6452,
      "ĠFox": 6453,
      "Ġliked": 6454,
      "Ġfacts": 6455,
      "Ġsymptoms": 6456,
      "View": 6457,
      "ennis": 6458,
      "Ġdivision": 6459,
      "Ġtalked": 6460,
      "Ġextended": 6461,
      "ashed": 6462,
      "Ġworldwide": 6463,
      "ĠNext": 6464,
      "adel": 6465,
      "Ġstands": 6466,
      "ĠTit": 6467,
      "Ġcomponents": 6468,
      "lyn": 6469,
      "ĠParis": 6470,
      "Ġbon": 6471,
      "ĠInf": 6472,
      "Ġsan": 6473,
      "cons": 6474,
      "Ġfabric": 6475,
      "ATION": 6476,
      "ĠCanadian": 6477,
      "Ġrandom": 6478,
      "ifer": 6479,
      "Jan": 6480,
      "Rec": 6481,
      "alle": 6482,
      "Ġchoices": 6483,
      "800": 6484,
      "ĠCross": 6485,
      "Ġoriginally": 6486,
      "rid": 6487,
      "ĠProte": 6488,
      "Ġkeeps": 6489,
      "ĠChair": 6490,
      "ĠEric": 6491,
      "ĠOS": 6492,
      "Ġseriously": 6493,
      "Ġemp": 6494,
      "ĠNFL": 6495,
      "hetic": 6496,
      "Ġletters": 6497,
      "Another": 6498,
      "FC": 6499,
      "ĠDavis": 6500,
      "ĠRepublicans": 6501,
      "Ġhappening": 6502,
      "ĠBas": 6503,
      "Ġfairly": 6504,
      "Ġautomatically": 6505,
      "ĠItalian": 6506,
      "oration": 6507,
      "Ġinches": 6508,
      "ban": 6509,
      "Ġgoods": 6510,
      "oral": 6511,
      "Ġdeals": 6512,
      "Ġtopics": 6513,
      "Go": 6514,
      "pet": 6515,
      "weet": 6516,
      "Ġdiscussed": 6517,
      "Ġgay": 6518,
      "ĠLog": 6519,
      "ĠEnvironment": 6520,
      "Ġprofessor": 6521,
      "ĠSP": 6522,
      "sell": 6523,
      "Ġfifth": 6524,
      "inder": 6525,
      "Ġcomprehensive": 6526,
      "essed": 6527,
      "asters": 6528,
      "achel": 6529,
      "ĠEgypt": 6530,
      "Ġped": 6531,
      "iscal": 6532,
      "uting": 6533,
      "onna": 6534,
      "azon": 6535,
      "Ġauthorities": 6536,
      "53": 6537,
      "anny": 6538,
      "ĠTour": 6539,
      "ĠPage": 6540,
      "ĠInn": 6541,
      "Ġcutting": 6542,
      "Ġsample": 6543,
      "ĠWord": 6544,
      "EE": 6545,
      "Ġemployment": 6546,
      "Ġpump": 6547,
      "idelines": 6548,
      "Ġwal": 6549,
      "uction": 6550,
      "Ġexamples": 6551,
      "LY": 6552,
      "Ġknowing": 6553,
      "Ġrealized": 6554,
      "ublished": 6555,
      "Ġfantastic": 6556,
      "Ġprocessing": 6557,
      "ĠLittle": 6558,
      "REE": 6559,
      "ĠJr": 6560,
      "Ġconstruct": 6561,
      "inem": 6562,
      "ĠEnd": 6563,
      "Ġinfl": 6564,
      "Ġingredients": 6565,
      "ĠColl": 6566,
      "ĠMaster": 6567,
      "ĠDom": 6568,
      "Ġ38": 6569,
      "Ġreligion": 6570,
      "ĠData": 6571,
      "ĠVan": 6572,
      "ĠGM": 6573,
      "inois": 6574,
      "Ġsoul": 6575,
      "Ġenhance": 6576,
      "Ġnob": 6577,
      "Ġarts": 6578,
      "Today": 6579,
      "Ġdefined": 6580,
      "Ġroute": 6581,
      "Ġbare": 6582,
      "Ġtruck": 6583,
      "ĠAsia": 6584,
      "Ġconfirm": 6585,
      "Ġhyd": 6586,
      "Ġstudio": 6587,
      "Ġsignal": 6588,
      "Ġfunctions": 6589,
      "Ġguitar": 6590,
      "DS": 6591,
      "Ġfixed": 6592,
      "aska": 6593,
      "Ġimpossible": 6594,
      "Ġperfectly": 6595,
      "ĠDaily": 6596,
      "Ġlikes": 6597,
      "ĠLive": 6598,
      "ĠBra": 6599,
      "Ġsoph": 6600,
      "Ġwarn": 6601,
      "Ġregul": 6602,
      "ĠPack": 6603,
      "Ġast": 6604,
      "Ġindex": 6605,
      "GB": 6606,
      "Ġbroke": 6607,
      "Ġ1998": 6608,
      "ĠBrad": 6609,
      "Ġhopes": 6610,
      "ATE": 6611,
      "Ġglad": 6612,
      "Ġremote": 6613,
      "orders": 6614,
      "76": 6615,
      "ĠHon": 6616,
      "ints": 6617,
      "Ġjoy": 6618,
      "ĠInvest": 6619,
      "Ġcontrast": 6620,
      "ĠAndroid": 6621,
      "Ġsou": 6622,
      "Ġclinical": 6623,
      "utch": 6624,
      "ĠAnother": 6625,
      "Ġinvestors": 6626,
      "Ġimpressive": 6627,
      "ĠSupreme": 6628,
      "ouston": 6629,
      "ĠFOR": 6630,
      "51": 6631,
      "Ġcooper": 6632,
      "TC": 6633,
      "ĠBre": 6634,
      "Ġcarbon": 6635,
      "Ġfacing": 6636,
      "Ġsomewhat": 6637,
      "Ġmeal": 6638,
      "Ġexpressed": 6639,
      "Ġaccomp": 6640,
      "irms": 6641,
      "Ġvisiting": 6642,
      "ampion": 6643,
      "rip": 6644,
      "Ġfoods": 6645,
      "Ġkinds": 6646,
      "Ġfeaturing": 6647,
      "this": 6648,
      "Ġdepth": 6649,
      "long": 6650,
      "Ġwest": 6651,
      "ican": 6652,
      "Ġstreets": 6653,
      "Ġloan": 6654,
      "ĠSanta": 6655,
      "Ġnav": 6656,
      "Ġbeer": 6657,
      "Ġarrested": 6658,
      "ĠSpanish": 6659,
      "uster": 6660,
      "ĠGlobal": 6661,
      "ĠDar": 6662,
      "berry": 6663,
      "oria": 6664,
      "elcome": 6665,
      "Ġunable": 6666,
      "________": 6667,
      "ĠEr": 6668,
      "oster": 6669,
      "Ġattorney": 6670,
      "Ġ1990": 6671,
      "Ġchain": 6672,
      "Ġmurder": 6673,
      "ĠSon": 6674,
      "ĠLeg": 6675,
      "PM": 6676,
      "pay": 6677,
      "Ġcorrespond": 6678,
      ".âĢĻ": 6679,
      "inet": 6680,
      "nic": 6681,
      "Ġsauce": 6682,
      "tle": 6683,
      "Ġserves": 6684,
      "Ġmoments": 6685,
      "ĠSign": 6686,
      "Ġwid": 6687,
      "ĠPay": 6688,
      "Ġstrike": 6689,
      "Ġnurs": 6690,
      "Ġappreciate": 6691,
      "ĠArizona": 6692,
      "Ġdecre": 6693,
      "Ġtournament": 6694,
      "ĠJenn": 6695,
      "ilit": 6696,
      "Ġprovider": 6697,
      "hem": 6698,
      "anna": 6699,
      "Ġcovers": 6700,
      "Ġpersons": 6701,
      "Ġspr": 6702,
      "ĠCast": 6703,
      "weight": 6704,
      "Ġadds": 6705,
      "Ġtea": 6706,
      "profit": 6707,
      "ĠManager": 6708,
      "ureau": 6709,
      "Ġhardware": 6710,
      "arters": 6711,
      "Ġalcohol": 6712,
      "Ġdirected": 6713,
      "Although": 6714,
      "lete": 6715,
      "ĠHard": 6716,
      "Ġsubmit": 6717,
      "Ġindustrial": 6718,
      "Ġvictims": 6719,
      "ĠiPad": 6720,
      "Ġchannel": 6721,
      "Ġgrade": 6722,
      "ĠLiber": 6723,
      "Ġwins": 6724,
      "Ġbirthday": 6725,
      "ĠSoft": 6726,
      "Ġaccurate": 6727,
      "ĠMax": 6728,
      "Ġcooking": 6729,
      "Man": 6730,
      "OO": 6731,
      "va": 6732,
      "Ġevil": 6733,
      "ellect": 6734,
      "Ġproposal": 6735,
      "xx": 6736,
      "ĠEp": 6737,
      "Ġpounds": 6738,
      "Ġpermission": 6739,
      "Ġshel": 6740,
      "nesota": 6741,
      "Ġincreases": 6742,
      "ifications": 6743,
      "ĠTem": 6744,
      "ĠDaniel": 6745,
      "inding": 6746,
      "http": 6747,
      "ĠGames": 6748,
      "Per": 6749,
      "opp": 6750,
      "Ġwatched": 6751,
      "Ġprompt": 6752,
      "Ġbreakfast": 6753,
      "ua": 6754,
      "Ġsyn": 6755,
      "ĠMiller": 6756,
      "Ġmoves": 6757,
      "Ġthin": 6758,
      "nell": 6759,
      "Ġcapable": 6760,
      "Ġexecut": 6761,
      "Ġisland": 6762,
      "host": 6763,
      "stream": 6764,
      "Ġscientists": 6765,
      "Ġrestaurants": 6766,
      "Ġstretch": 6767,
      "Ġunp": 6768,
      "Ġsignificantly": 6769,
      "omy": 6770,
      "Ġpossibility": 6771,
      "Ġslowly": 6772,
      "ĠPacific": 6773,
      "rum": 6774,
      "ĠExecutive": 6775,
      "Ġapproval": 6776,
      "Ġseasons": 6777,
      "Ġ33": 6778,
      "Ġconfirmed": 6779,
      "amber": 6780,
      "alty": 6781,
      "Ġpleased": 6782,
      "ĠGirl": 6783,
      "Ġaf": 6784,
      "Ġneither": 6785,
      "ĠAvenue": 6786,
      "bar": 6787,
      "Ġdesigns": 6788,
      "Ġyounger": 6789,
      "Many": 6790,
      "uality": 6791,
      "Ġrelief": 6792,
      "Ġlovely": 6793,
      "she": 6794,
      "Ġriver": 6795,
      "Ġinstructions": 6796,
      "Ġprocedures": 6797,
      "rell": 6798,
      "ĠâĢ¢": 6799,
      "Ġcrack": 6800,
      "Ġmand": 6801,
      "Ġelig": 6802,
      "rage": 6803,
      "Ġfeedback": 6804,
      "Ġdepending": 6805,
      "ĠAdministration": 6806,
      "ĠVideo": 6807,
      "Ġmaintenance": 6808,
      "Ġcock": 6809,
      "ĠFord": 6810,
      "Ġgolf": 6811,
      "olit": 6812,
      "iano": 6813,
      "otal": 6814,
      "Ġauthors": 6815,
      "ĠPot": 6816,
      "Ġinfrastructure": 6817,
      "wing": 6818,
      "Ġremark": 6819,
      "Ġillegal": 6820,
      "Ġsupports": 6821,
      "Ġlights": 6822,
      "ĠIndust": 6823,
      "ugh": 6824,
      "Ġsuc": 6825,
      "ĠStan": 6826,
      "Ġconflict": 6827,
      "ĠExper": 6828,
      "run": 6829,
      "aine": 6830,
      "Ġclaimed": 6831,
      "Ġmixed": 6832,
      "Ġagents": 6833,
      "Ġfrequently": 6834,
      "Ġattended": 6835,
      "Ġbattery": 6836,
      "Ġvary": 6837,
      "Ġdish": 6838,
      "Ġgear": 6839,
      "Ġtypical": 6840,
      "des": 6841,
      "gage": 6842,
      "Ġticket": 6843,
      "encing": 6844,
      "ĠDemocratic": 6845,
      "Ġentit": 6846,
      "ĠControl": 6847,
      "hi": 6848,
      "ĠDC": 6849,
      "Ġrail": 6850,
      "och": 6851,
      "lights": 6852,
      "Ġrestrict": 6853,
      "Ġsight": 6854,
      "ĠBible": 6855,
      "ĠKat": 6856,
      "ounded": 6857,
      "Ġ:)": 6858,
      "Ġweren": 6859,
      "Ġelected": 6860,
      "ĠPerson": 6861,
      "Ġeffectively": 6862,
      "Ġstood": 6863,
      "ĠPak": 6864,
      "Ġluck": 6865,
      "ĠTaylor": 6866,
      "stein": 6867,
      "onym": 6868,
      "born": 6869,
      "greg": 6870,
      "ĠTony": 6871,
      "Ġfaces": 6872,
      "Ġheads": 6873,
      "Ġengineering": 6874,
      "ĠMiami": 6875,
      "ĠRest": 6876,
      "ĠJac": 6877,
      "class": 6878,
      "ĠSaf": 6879,
      "Ġvaluable": 6880,
      "Ġrecording": 6881,
      "ĠPoint": 6882,
      "ĠWat": 6883,
      "Ġages": 6884,
      "athan": 6885,
      "Are": 6886,
      "Ġtall": 6887,
      "ĠRod": 6888,
      "Int": 6889,
      "Ġtag": 6890,
      "resents": 6891,
      "Even": 6892,
      "abb": 6893,
      "Ġpractical": 6894,
      "Ġestimated": 6895,
      "Ġpp": 6896,
      "Ġexclusive": 6897,
      "Ġdescription": 6898,
      "osit": 6899,
      "ĠBroad": 6900,
      "Ġvillage": 6901,
      "Look": 6902,
      "Ġenthus": 6903,
      "anges": 6904,
      "Ġoccurred": 6905,
      "Ġclothes": 6906,
      "Ġdrivers": 6907,
      "Ġinnovative": 6908,
      "Ġtrend": 6909,
      "ĠIllinois": 6910,
      "ĠCarl": 6911,
      "ĠSite": 6912,
      "Ġphilosoph": 6913,
      "erg": 6914,
      "aron": 6915,
      "Ġhall": 6916,
      "Ġfalse": 6917,
      "Ġdifferences": 6918,
      "Ġconsistent": 6919,
      "ĠLew": 6920,
      "Ġvast": 6921,
      "Ġvice": 6922,
      "Ġcerem": 6923,
      "ĠBrian": 6924,
      "Ġsurprising": 6925,
      "Ġshap": 6926,
      "sm": 6927,
      "Ġfinds": 6928,
      "Ġpercentage": 6929,
      "teen": 6930,
      "Ġenforcement": 6931,
      "Ġaside": 6932,
      "Ġzone": 6933,
      "Ġsufficient": 6934,
      "Ġidentity": 6935,
      "Ġnetworks": 6936,
      "Ġacts": 6937,
      "2010": 6938,
      "Ġprinciples": 6939,
      "ographic": 6940,
      "Ġcake": 6941,
      "Ġlux": 6942,
      "ras": 6943,
      "Ġempt": 6944,
      "ĠPolicy": 6945,
      "Ġrele": 6946,
      "Ġmedicine": 6947,
      "UL": 6948,
      "Ġ37": 6949,
      "ĠExt": 6950,
      "Ġimmediate": 6951,
      "Ġsomewhere": 6952,
      "Ġinjuries": 6953,
      "Ġdescribe": 6954,
      "izz": 6955,
      "Ġduty": 6956,
      "Ġplanet": 6957,
      "yers": 6958,
      "Ġsuggests": 6959,
      "Ġsin": 6960,
      "ogs": 6961,
      "ĠJoseph": 6962,
      "ĠAsh": 6963,
      "ĠLim": 6964,
      "Ġinterface": 6965,
      "uling": 6966,
      "phy": 6967,
      "ixture": 6968,
      "ĠFriend": 6969,
      "Ġlayer": 6970,
      "ĠKh": 6971,
      "Ġtail": 6972,
      "Ġcommunications": 6973,
      "Ġphotograp": 6974,
      "itage": 6975,
      "Ġnecessarily": 6976,
      "ĠDemocrats": 6977,
      "Ġscoring": 6978,
      "Ġthinks": 6979,
      "Ġinstrument": 6980,
      "ĠGuide": 6981,
      "Ġlie": 6982,
      "bel": 6983,
      "isk": 6984,
      "Ġclosely": 6985,
      "ĠDun": 6986,
      "mont": 6987,
      "Ġregulations": 6988,
      "Ġbear": 6989,
      "boy": 6990,
      "ĠLabor": 6991,
      "Ġexpression": 6992,
      "uls": 6993,
      "Ġhyp": 6994,
      "lah": 6995,
      "Ġnewspaper": 6996,
      "Ġreject": 6997,
      "anche": 6998,
      "gt": 6999,
      "Ġfavour": 7000,
      "Ġwheel": 7001,
      "ĠLind": 7002,
      "ĠForce": 7003,
      "owa": 7004,
      "Ġcontrovers": 7005,
      "Ġeast": 7006,
      "Ġ?": 7007,
      "Ġfuck": 7008,
      "rated": 7009,
      "Ġunion": 7010,
      "Ġflood": 7011,
      "Ġâ": 7012,
      "Ġsurf": 7013,
      "Ġorganic": 7014,
      "Ġsteel": 7015,
      "Ġrose": 7016,
      "ĠLuc": 7017,
      "stra": 7018,
      "comes": 7019,
      "stone": 7020,
      "Ġvictim": 7021,
      "Ġmoder": 7022,
      "Ġ49": 7023,
      "amental": 7024,
      "Ġwrites": 7025,
      "ĠAgain": 7026,
      "high": 7027,
      "Ġrepeated": 7028,
      "ĠWilson": 7029,
      "ĠBull": 7030,
      "ĠSus": 7031,
      "Ġstrange": 7032,
      "RI": 7033,
      "ĠRadio": 7034,
      "ĠHollywood": 7035,
      "Ġhat": 7036,
      "Ġdim": 7037,
      "Ġrein": 7038,
      "Ġreader": 7039,
      "Ġ75": 7040,
      "nda": 7041,
      "Ġnarrow": 7042,
      "icial": 7043,
      "Where": 7044,
      "Ġmuseum": 7045,
      "Ġexcess": 7046,
      "Ġobjects": 7047,
      "endar": 7048,
      "ĠHenry": 7049,
      "Ġpromise": 7050,
      "Ġdomin": 7051,
      "Ġconstitution": 7052,
      "Ġremained": 7053,
      "Ġsurrounding": 7054,
      "Ġrecognize": 7055,
      "ĠCentre": 7056,
      "Ġlegs": 7057,
      "Ġsettings": 7058,
      "Ġhousehold": 7059,
      "Ġ1997": 7060,
      "Ġinvent": 7061,
      "Ġhang": 7062,
      "ĠCirc": 7063,
      "Ġbow": 7064,
      "Ġheav": 7065,
      "phia": 7066,
      "enth": 7067,
      "ĠFun": 7068,
      "ĠAustralian": 7069,
      "Ġaffili": 7070,
      "Who": 7071,
      "ĠHom": 7072,
      "icted": 7073,
      "Ġwet": 7074,
      "Ġstrategies": 7075,
      "ĠRight": 7076,
      "Ġoutstanding": 7077,
      "Ġpra": 7078,
      "Ġpassen": 7079,
      "Book": 7080,
      "writ": 7081,
      "ĠFred": 7082,
      "Ġobtain": 7083,
      "lder": 7084,
      "andy": 7085,
      "aug": 7086,
      "ĠConnect": 7087,
      "Ġgod": 7088,
      "Ġanticip": 7089,
      "ĠMinnesota": 7090,
      "esides": 7091,
      "Ġborder": 7092,
      "Ġspin": 7093,
      "Ġwebsites": 7094,
      "isms": 7095,
      "ati": 7096,
      "Ġtiny": 7097,
      "Ġtransition": 7098,
      "Ġbasically": 7099,
      "Ġwalls": 7100,
      "star": 7101,
      "claim": 7102,
      "Ġreaction": 7103,
      "burgh": 7104,
      "During": 7105,
      "ouch": 7106,
      "estyle": 7107,
      "Gu": 7108,
      "cling": 7109,
      "eding": 7110,
      "entle": 7111,
      "Ġsilver": 7112,
      "ĠPen": 7113,
      "Ġcoordin": 7114,
      "Ġdistinct": 7115,
      "level": 7116,
      "hent": 7117,
      "umes": 7118,
      "Ġsubmitted": 7119,
      "ĠCost": 7120,
      "ĠKevin": 7121,
      "ĠStat": 7122,
      "ĠKim": 7123,
      "game": 7124,
      "Ġinstruct": 7125,
      "Ġrepresents": 7126,
      "ĠMrs": 7127,
      "Ġsimpl": 7128,
      "Ġcarefully": 7129,
      "Ġlargely": 7130,
      "cers": 7131,
      "ĠFre": 7132,
      "adelphia": 7133,
      "Â·": 7134,
      "Ġinvited": 7135,
      "ĠAdam": 7136,
      "agan": 7137,
      "ĠRose": 7138,
      "Ġadvis": 7139,
      "Ã¡": 7140,
      "Ġancient": 7141,
      "ĠPlace": 7142,
      "Ġ34": 7143,
      "ĠIII": 7144,
      "ĠAp": 7145,
      "Ġtherapy": 7146,
      "ĠAccess": 7147,
      "GA": 7148,
      "Ġcompens": 7149,
      ">>": 7150,
      "roduct": 7151,
      "ĠAC": 7152,
      "ĠRoom": 7153,
      "Ġultimately": 7154,
      "Ġaggress": 7155,
      "Thank": 7156,
      "Ġregistration": 7157,
      "Ġwindows": 7158,
      "ĠSupport": 7159,
      "ĠHouston": 7160,
      "Ġcycle": 7161,
      "icing": 7162,
      "Ġongoing": 7163,
      "ipal": 7164,
      "ylv": 7165,
      "Ġeverybody": 7166,
      "iments": 7167,
      "Ġatmosphere": 7168,
      "razil": 7169,
      "Ġtrading": 7170,
      "ensity": 7171,
      "ĠBru": 7172,
      "ĠOpt": 7173,
      "Ġgrass": 7174,
      "Ġbodies": 7175,
      "Ġyellow": 7176,
      "Ġversions": 7177,
      "oore": 7178,
      "Ġprofit": 7179,
      "Ġagric": 7180,
      "Ġexposure": 7181,
      "ava": 7182,
      "Ġprepar": 7183,
      "acc": 7184,
      "ocking": 7185,
      "ĠHarry": 7186,
      "ilty": 7187,
      "Ġflash": 7188,
      "Ġdelight": 7189,
      "Ġregularly": 7190,
      "ĠProfessor": 7191,
      "inent": 7192,
      "ailability": 7193,
      "oin": 7194,
      "ĠKansas": 7195,
      "Ġchose": 7196,
      "Ġpapers": 7197,
      "Ġpursu": 7198,
      "ĠYet": 7199,
      "rome": 7200,
      "Ġextent": 7201,
      "Ġrisks": 7202,
      "ĠTurn": 7203,
      "Ġbench": 7204,
      "Ġsky": 7205,
      "ĠDid": 7206,
      "Ġlistening": 7207,
      "Ġlicens": 7208,
      "utation": 7209,
      "Ġdiscipl": 7210,
      "Ġnearby": 7211,
      "Ġemotional": 7212,
      "65": 7213,
      "dy": 7214,
      "Back": 7215,
      "Ġcoal": 7216,
      "Ġconcert": 7217,
      "ĠThree": 7218,
      "pel": 7219,
      "aze": 7220,
      "regon": 7221,
      "Once": 7222,
      "Ġcentre": 7223,
      "Ġtracks": 7224,
      "Ġboost": 7225,
      "iti": 7226,
      "onto": 7227,
      "Ġmini": 7228,
      "Ġdebut": 7229,
      "ockey": 7230,
      "Ġawards": 7231,
      "etime": 7232,
      "AB": 7233,
      "Ġdoors": 7234,
      "Ġstim": 7235,
      "ĠBox": 7236,
      "Ġhook": 7237,
      "Ġ($": 7238,
      "Ġcontinuing": 7239,
      "Ġhistoric": 7240,
      "Ġimprovement": 7241,
      "ether": 7242,
      "Ġdates": 7243,
      "Ġsubsequ": 7244,
      "ĠAD": 7245,
      "ritten": 7246,
      "makers": 7247,
      "Ġattrib": 7248,
      "Ġvotes": 7249,
      "Ġplayoff": 7250,
      "plete": 7251,
      "Ġcollected": 7252,
      "ĠInte": 7253,
      "Two": 7254,
      "2009": 7255,
      "ĠDoes": 7256,
      "Ġbomb": 7257,
      "ĠLt": 7258,
      "ĠBefore": 7259,
      "ĠAS": 7260,
      "Ġorganized": 7261,
      "Ġfoundation": 7262,
      "Ġreplaced": 7263,
      "Ġmanufacturing": 7264,
      "TER": 7265,
      "Note": 7266,
      "CD": 7267,
      "Ġgifts": 7268,
      "ensus": 7269,
      "Ġbunch": 7270,
      "Ġpersonally": 7271,
      "Ġexplains": 7272,
      "iley": 7273,
      "Ġprocedure": 7274,
      "Ġoffices": 7275,
      "aded": 7276,
      "98": 7277,
      "Ġvacation": 7278,
      "rett": 7279,
      "Ġsymbol": 7280,
      "oned": 7281,
      "ĠSeattle": 7282,
      "Ġmal": 7283,
      "Ġexpectations": 7284,
      "ĠVill": 7285,
      "VER": 7286,
      "Ġtitles": 7287,
      "Ġmonthly": 7288,
      "lahoma": 7289,
      "Ġheaded": 7290,
      "300": 7291,
      "Ġdoctors": 7292,
      "ĠScot": 7293,
      "anwhile": 7294,
      "oir": 7295,
      "Ġmountain": 7296,
      "Ġrear": 7297,
      "Ġprohib": 7298,
      "stood": 7299,
      "Ġassign": 7300,
      "ĠPlus": 7301,
      "rog": 7302,
      "Ġexception": 7303,
      "ĠCode": 7304,
      "Ġphase": 7305,
      "xy": 7306,
      "Ġincreasingly": 7307,
      "Ġpartnership": 7308,
      "anned": 7309,
      "Ġexec": 7310,
      "Ġincredible": 7311,
      "Ġapartment": 7312,
      "Will": 7313,
      "ĠTenn": 7314,
      "ĠPass": 7315,
      "Ġexternal": 7316,
      "Ġawareness": 7317,
      "allas": 7318,
      "reprene": 7319,
      "adow": 7320,
      "Ġsuspect": 7321,
      "Ġinformed": 7322,
      "Ġproof": 7323,
      "Ġacting": 7324,
      "Ġcontained": 7325,
      ")|": 7326,
      "ĠPrice": 7327,
      "Ġloves": 7328,
      "uing": 7329,
      "ĠSet": 7330,
      "Ġurban": 7331,
      "oty": 7332,
      "Ġlinked": 7333,
      "Pr": 7334,
      "Ġgotten": 7335,
      "Ġairport": 7336,
      "EA": 7337,
      "Ġobtained": 7338,
      "Ġplug": 7339,
      "Ġconstantly": 7340,
      "aud": 7341,
      "Ġalive": 7342,
      "Ġfishing": 7343,
      "Ġdowntown": 7344,
      "Ke": 7345,
      "Ġassets": 7346,
      "Ġprimarily": 7347,
      "Feb": 7348,
      "urrent": 7349,
      "ĠRog": 7350,
      "Ġspiritual": 7351,
      "Ġapps": 7352,
      "ĠKeep": 7353,
      "Ġrepair": 7354,
      "ĠTig": 7355,
      "Ġflour": 7356,
      "iversary": 7357,
      "Ġlists": 7358,
      "roit": 7359,
      "raid": 7360,
      "Ġsharp": 7361,
      "iot": 7362,
      "Ġdealing": 7363,
      "ĠPalest": 7364,
      "ĠCN": 7365,
      "Ġkilling": 7366,
      "ĠStart": 7367,
      "Ġhabit": 7368,
      "RS": 7369,
      "aph": 7370,
      "Ġvirtual": 7371,
      "iform": 7372,
      "ĠItaly": 7373,
      "Ġshift": 7374,
      "ikes": 7375,
      "ylvania": 7376,
      "pan": 7377,
      "Ġtied": 7378,
      "His": 7379,
      "Ġphen": 7380,
      "ĠAwards": 7381,
      "ĠTech": 7382,
      "Ġassistant": 7383,
      "Ġseed": 7384,
      "redit": 7385,
      "Ġopposition": 7386,
      "!!!!": 7387,
      "PC": 7388,
      "ĠNick": 7389,
      "iamond": 7390,
      "64": 7391,
      "Ġenable": 7392,
      "ĠRussian": 7393,
      "Ġinstallation": 7394,
      "Ġintelligence": 7395,
      "Ġdelicious": 7396,
      "Ġjack": 7397,
      "anes": 7398,
      "Ġwra": 7399,
      "Ġelev": 7400,
      "Ġresulting": 7401,
      "Ġlucky": 7402,
      "ĠÃ": 7403,
      "Ġsaved": 7404,
      "Ġtrick": 7405,
      "isted": 7406,
      "ounter": 7407,
      "iences": 7408,
      "ĠStudies": 7409,
      "ĠRam": 7410,
      "iscons": 7411,
      "Ġpointed": 7412,
      "Ġreferred": 7413,
      "Ġsorry": 7414,
      "Ġsituations": 7415,
      "Ġtransportation": 7416,
      "Ġyield": 7417,
      "asks": 7418,
      "Ġtwenty": 7419,
      "Ġposting": 7420,
      "rete": 7421,
      "bal": 7422,
      "ĠTru": 7423,
      "ĠHIV": 7424,
      "ĠSH": 7425,
      "ĠRussia": 7426,
      "Ġorigin": 7427,
      "idays": 7428,
      "Ġefficiency": 7429,
      "ĠMountain": 7430,
      "isconsin": 7431,
      "Ġ400": 7432,
      "Ġsmile": 7433,
      "Ġsending": 7434,
      "ĠCe": 7435,
      "swe": 7436,
      "Ġflavor": 7437,
      "Ġskill": 7438,
      "osa": 7439,
      "including": 7440,
      "eline": 7441,
      "ĠContin": 7442,
      "Ġ1996": 7443,
      "ervations": 7444,
      "Ġtab": 7445,
      "Ġreward": 7446,
      "Ġtur": 7447,
      "ĠWH": 7448,
      "Ġunus": 7449,
      "ĠKey": 7450,
      "Ġassessment": 7451,
      "Ġ09": 7452,
      "iament": 7453,
      "Ġroutine": 7454,
      "ĠFollow": 7455,
      "Ġwriters": 7456,
      "Ġshouldn": 7457,
      "ĠHope": 7458,
      "ĠSpirit": 7459,
      "Ġdefault": 7460,
      "Ġcelebrate": 7461,
      "ologist": 7462,
      "ĠGi": 7463,
      "ults": 7464,
      "ĠSky": 7465,
      "Ġhole": 7466,
      "68": 7467,
      "Ġsevere": 7468,
      "ĠDigital": 7469,
      "Ġtap": 7470,
      "AND": 7471,
      "ĠRoyal": 7472,
      "Ġsoldiers": 7473,
      "ĠDate": 7474,
      "ordan": 7475,
      "Ġsmell": 7476,
      "Ġflowers": 7477,
      "Ġlatter": 7478,
      "olis": 7479,
      "Ġdrawing": 7480,
      "ĠBal": 7481,
      "Ġattached": 7482,
      "Ġsucceed": 7483,
      "ĠMD": 7484,
      "ĠLow": 7485,
      "athy": 7486,
      "Ġanymore": 7487,
      "Ġera": 7488,
      "ĠStill": 7489,
      "Ġrevolution": 7490,
      "ĠTrust": 7491,
      "Ġtie": 7492,
      "ĠHand": 7493,
      "Ġsolar": 7494,
      "Ġ08": 7495,
      "Ġassault": 7496,
      "Ġbottle": 7497,
      "'.": 7498,
      "79": 7499,
      "nam": 7500,
      "mal": 7501,
      "iece": 7502,
      "Ġweekly": 7503,
      "Ġnormally": 7504,
      "Ġsuffered": 7505,
      "Oct": 7506,
      "reland": 7507,
      "Ġ1995": 7508,
      "Follow": 7509,
      "Check": 7510,
      "elf": 7511,
      "Ġguarantee": 7512,
      "alo": 7513,
      "Ġopinions": 7514,
      "ilton": 7515,
      "ĠThus": 7516,
      "Ġsavings": 7517,
      "ĠSearch": 7518,
      "ĠNH": 7519,
      "Ġfiscal": 7520,
      "dated": 7521,
      "Ġtested": 7522,
      "ĠFarm": 7523,
      "ĠDiego": 7524,
      "Ġjew": 7525,
      "ĠLy": 7526,
      "Ġengage": 7527,
      "Ġsplit": 7528,
      "rants": 7529,
      "Ġinvention": 7530,
      "Ġmembership": 7531,
      "ĠNAS": 7532,
      "Ġ1980": 7533,
      "pes": 7534,
      "Ġliquid": 7535,
      "Ġheight": 7536,
      "Ġvisited": 7537,
      "ifies": 7538,
      "Ġsupplies": 7539,
      "Ġopposite": 7540,
      "ĠSystems": 7541,
      "Ġnoise": 7542,
      "itals": 7543,
      "abeth": 7544,
      "celer": 7545,
      "Ġawarded": 7546,
      "uties": 7547,
      "sters": 7548,
      "ĠHoly": 7549,
      "ĠSpace": 7550,
      "Ġintellect": 7551,
      "olec": 7552,
      "Ġpatterns": 7553,
      "bury": 7554,
      "Ġattempts": 7555,
      "ĠContact": 7556,
      "orne": 7557,
      "Ġresc": 7558,
      "bro": 7559,
      "ĠSav": 7560,
      "orable": 7561,
      "ĠBa": 7562,
      "Ġforever": 7563,
      "ĠOak": 7564,
      "Ġcontrols": 7565,
      "ba": 7566,
      "rition": 7567,
      "ĠSteven": 7568,
      "ĠPhiladelphia": 7569,
      "Ġ39": 7570,
      "atell": 7571,
      "child": 7572,
      "Ġfing": 7573,
      "Ġpublication": 7574,
      "pir": 7575,
      "earing": 7576,
      "Ġproviders": 7577,
      "asts": 7578,
      "bing": 7579,
      "Ġdrinking": 7580,
      "Ġ42": 7581,
      "Ġsuddenly": 7582,
      "abetes": 7583,
      "MP": 7584,
      "irts": 7585,
      "inking": 7586,
      "Ġbrowser": 7587,
      "ura": 7588,
      "utor": 7589,
      "ĠCreat": 7590,
      "Ġterrit": 7591,
      "ĠAmazon": 7592,
      "Ġdomain": 7593,
      "ca": 7594,
      "Ġpin": 7595,
      "sylvania": 7596,
      "Ġwidely": 7597,
      "ĠEqu": 7598,
      "Ġstruck": 7599,
      "Sm": 7600,
      "ĠMedicine": 7601,
      "ĠMA": 7602,
      "iki": 7603,
      "Ġaircraft": 7604,
      "Ġmoral": 7605,
      "rieved": 7606,
      "Ġseats": 7607,
      "Ġadmitted": 7608,
      "ressed": 7609,
      "ĠSection": 7610,
      "etts": 7611,
      "ĠBase": 7612,
      "Ġassume": 7613,
      "Ġacid": 7614,
      "ĠGreg": 7615,
      "Ġprotein": 7616,
      "Ġexperiment": 7617,
      "thew": 7618,
      "Ġevolution": 7619,
      "ĠWrit": 7620,
      "Ġtank": 7621,
      "Ġhitting": 7622,
      "etry": 7623,
      "Ġgranted": 7624,
      "zer": 7625,
      "asant": 7626,
      "Ġcontemporary": 7627,
      "ĠColumbia": 7628,
      "Ġimplementation": 7629,
      "ĠEastern": 7630,
      "Ġexistence": 7631,
      "Ġcontribute": 7632,
      "page": 7633,
      "Ġsessions": 7634,
      "Ġfulf": 7635,
      "Ġfilter": 7636,
      "tes": 7637,
      "Ġbatt": 7638,
      "ĠBrook": 7639,
      "Ġintegrated": 7640,
      "Ġstruggle": 7641,
      "ĠLo": 7642,
      "Ġdefinition": 7643,
      "missions": 7644,
      "Ġforgot": 7645,
      "Ġenemy": 7646,
      "ĠConf": 7647,
      "Ġscenes": 7648,
      "who": 7649,
      "anke": 7650,
      "ĠFoot": 7651,
      "Ġencouraged": 7652,
      "Ġdivid": 7653,
      "Reg": 7654,
      "Ġ)": 7655,
      "Ġtiss": 7656,
      "Ġrum": 7657,
      "ortion": 7658,
      "ĠThrough": 7659,
      "Ġvend": 7660,
      "Ġroof": 7661,
      "Ġcapture": 7662,
      "Â°": 7663,
      "Ġmile": 7664,
      "Ġvul": 7665,
      "Ġfalling": 7666,
      "Ġprivacy": 7667,
      "Ġblocks": 7668,
      "Ġillness": 7669,
      "Ġaccused": 7670,
      "Ġpermanent": 7671,
      "Ġplot": 7672,
      "ĠBon": 7673,
      "ĠArea": 7674,
      "Ġmarked": 7675,
      "Ġsees": 7676,
      "Ġgiant": 7677,
      "ĠBrazil": 7678,
      "Ġrating": 7679,
      "Ġsuccessfully": 7680,
      "Ġarmy": 7681,
      "ĠConstitution": 7682,
      "war": 7683,
      "Ġforest": 7684,
      "Ġchat": 7685,
      "ĠNote": 7686,
      "ĠRick": 7687,
      "Ġexplan": 7688,
      "upid": 7689,
      "Ġbrill": 7690,
      "Ġcomponent": 7691,
      "oil": 7692,
      "Ġinvolving": 7693,
      "85": 7694,
      "Ġbell": 7695,
      "Ġbreaking": 7696,
      "Ġnewly": 7697,
      "ĠBritain": 7698,
      "istant": 7699,
      "ĠOregon": 7700,
      "Ġinjured": 7701,
      "ĠDisc": 7702,
      "bre": 7703,
      "ĠStephen": 7704,
      "Ġmachines": 7705,
      "heast": 7706,
      "ĠAgency": 7707,
      "Ġtip": 7708,
      "ĠWatch": 7709,
      "ĠIowa": 7710,
      "Ġending": 7711,
      "Ġfindings": 7712,
      "Ġdesigner": 7713,
      "Ġlad": 7714,
      "ĠHa": 7715,
      "Ġpowers": 7716,
      "Ġicon": 7717,
      "Ġprotected": 7718,
      "ione": 7719,
      "Ġpepper": 7720,
      "Ġwireless": 7721,
      "cr": 7722,
      "Ġempty": 7723,
      "Ġsheet": 7724,
      "erts": 7725,
      "Ġaspect": 7726,
      "aturally": 7727,
      "Ġoutdoor": 7728,
      "ĠCa": 7729,
      "Like": 7730,
      "whel": 7731,
      "Ġclar": 7732,
      "ĠSn": 7733,
      "ĠCase": 7734,
      "Ġconstant": 7735,
      "eman": 7736,
      "Ġcomputers": 7737,
      "Ġvoted": 7738,
      "ulating": 7739,
      "ĠBowl": 7740,
      "ĠCO": 7741,
      "Ġpace": 7742,
      "Ġbridge": 7743,
      "Ġrig": 7744,
      "ĠTrib": 7745,
      "pass": 7746,
      "mates": 7747,
      "urse": 7748,
      "person": 7749,
      "rific": 7750,
      "Ġbreath": 7751,
      "ĠClinton": 7752,
      "Ġpassword": 7753,
      "ĠOK": 7754,
      "Ġdrawn": 7755,
      "umps": 7756,
      "RL": 7757,
      "Ġputs": 7758,
      "bell": 7759,
      "intend": 7760,
      "acon": 7761,
      "Ġol": 7762,
      "ĠThough": 7763,
      "Ġfasc": 7764,
      "Ġjudgment": 7765,
      "Ġprinted": 7766,
      "ĠTal": 7767,
      "Ġreduction": 7768,
      "Ġguilty": 7769,
      "Ġdevelopers": 7770,
      "oln": 7771,
      "Ġstone": 7772,
      "ĠRo": 7773,
      "ĠAtlanta": 7774,
      "Ġfounded": 7775,
      "achus": 7776,
      "acking": 7777,
      "aza": 7778,
      "Ġimproving": 7779,
      "Ġjur": 7780,
      "ĠKnow": 7781,
      "uis": 7782,
      "Ġoperate": 7783,
      "ĠBall": 7784,
      "Ġexpansion": 7785,
      "ĠFind": 7786,
      "Ġformal": 7787,
      "Ġcute": 7788,
      "ĠWisconsin": 7789,
      "Ġvital": 7790,
      "ĠLady": 7791,
      "ĠQuest": 7792,
      "case": 7793,
      "oken": 7794,
      "Ġengaged": 7795,
      "Ġstuck": 7796,
      "ĠPitt": 7797,
      "Ġreturning": 7798,
      "Ġeverywhere": 7799,
      "Ġrelative": 7800,
      "Ġperforming": 7801,
      "ESS": 7802,
      "Ġafraid": 7803,
      "ĠLA": 7804,
      "ĠPrem": 7805,
      "ĠMult": 7806,
      "ĠPA": 7807,
      "ĠJason": 7808,
      "Ġsevent": 7809,
      "ĠAnth": 7810,
      "Ġclothing": 7811,
      "ĠPennsylvania": 7812,
      "Sec": 7813,
      "lled": 7814,
      "ĠMagazine": 7815,
      "Ġshoulder": 7816,
      "Ġmonitoring": 7817,
      "ĠIreland": 7818,
      "Ġvari": 7819,
      "Ġinqu": 7820,
      "Ġcausing": 7821,
      "Ġpharm": 7822,
      "Ġ;": 7823,
      "Ġclimb": 7824,
      "ĠDam": 7825,
      "Ġbutt": 7826,
      "Ġtrig": 7827,
      "ĠSea": 7828,
      "Ġtouchdown": 7829,
      "Ġdiverse": 7830,
      "ĠLinux": 7831,
      "ĠCivil": 7832,
      "Ġwave": 7833,
      "Ġlies": 7834,
      "ĠStudents": 7835,
      "ĠPop": 7836,
      "Ġjunior": 7837,
      "Ġembr": 7838,
      "Ġcolour": 7839,
      "ĠLatin": 7840,
      "Ġloud": 7841,
      "ĠCre": 7842,
      "Ġtroops": 7843,
      "EP": 7844,
      "ĠDave": 7845,
      "Ġintent": 7846,
      "Ġsuffering": 7847,
      "Ġlimits": 7848,
      "ĠBern": 7849,
      "Ġrecognition": 7850,
      "Bu": 7851,
      "Ġstrategic": 7852,
      "Ġpresidential": 7853,
      "67": 7854,
      "Ġpersonnel": 7855,
      "icide": 7856,
      "ĠAfghanistan": 7857,
      "Ġcarrying": 7858,
      "Ġdollar": 7859,
      "Ġcompete": 7860,
      "Find": 7861,
      "ucks": 7862,
      "Ġstead": 7863,
      "Ġ150": 7864,
      "front": 7865,
      "ĠNorthern": 7866,
      "ĠLewis": 7867,
      "amps": 7868,
      "ĠCorporation": 7869,
      "ĠIrish": 7870,
      "Ġthorough": 7871,
      "ĠExpl": 7872,
      "ĠJay": 7873,
      "ĠRun": 7874,
      "ĠMs": 7875,
      "Ġlaid": 7876,
      "Ġcategories": 7877,
      "BM": 7878,
      "Ġaccomplish": 7879,
      "making": 7880,
      "aning": 7881,
      "Ġpurs": 7882,
      "ĠStaff": 7883,
      "Ġcourts": 7884,
      "ĠSummer": 7885,
      "worth": 7886,
      "Ġquarterback": 7887,
      "Ġsubsid": 7888,
      "Ġtrained": 7889,
      "ĠCru": 7890,
      "',": 7891,
      "Art": 7892,
      "Ġfraud": 7893,
      "idance": 7894,
      "Ġfundamental": 7895,
      "Ġpayments": 7896,
      "Ġrecommendations": 7897,
      "acher": 7898,
      "Ġmixture": 7899,
      "Ġstayed": 7900,
      "ped": 7901,
      "69": 7902,
      "ĠCountry": 7903,
      "Ġpainting": 7904,
      "Ġphr": 7905,
      "pen": 7906,
      "uct": 7907,
      "EF": 7908,
      "Ġcontrolled": 7909,
      "ĠSU": 7910,
      "achusetts": 7911,
      "Ġrepresented": 7912,
      "anted": 7913,
      "Ġpresents": 7914,
      "Ġfranch": 7915,
      "car": 7916,
      "ĠEs": 7917,
      "Ġlect": 7918,
      "ĠMess": 7919,
      "Ġstro": 7920,
      "yes": 7921,
      "Ġhung": 7922,
      "Ġrecon": 7923,
      "ador": 7924,
      "izabeth": 7925,
      "Ġrising": 7926,
      "oen": 7927,
      "etary": 7928,
      "was": 7929,
      "Ġflav": 7930,
      "ĠCommer": 7931,
      "ĠFinancial": 7932,
      "gent": 7933,
      "Ġprecise": 7934,
      "ĠBry": 7935,
      "iol": 7936,
      "Ġevol": 7937,
      "Ġsought": 7938,
      "issions": 7939,
      "Ġintention": 7940,
      "Ġfestival": 7941,
      "oval": 7942,
      "ĠMajor": 7943,
      "inity": 7944,
      "ceived": 7945,
      "ĠDrive": 7946,
      "cific": 7947,
      "Ġvolunteers": 7948,
      "ĠGuard": 7949,
      "Ġconservative": 7950,
      "89": 7951,
      "ĠSilver": 7952,
      "Ġ65": 7953,
      "struction": 7954,
      "Ġhumans": 7955,
      "Ġfeelings": 7956,
      "Ġbags": 7957,
      "lee": 7958,
      "Ġentr": 7959,
      "uter": 7960,
      "Ġcreates": 7961,
      "made": 7962,
      "essel": 7963,
      "Ġchallenging": 7964,
      "cal": 7965,
      "Ġexpertise": 7966,
      "Ġdad": 7967,
      "Ġrequests": 7968,
      "ĠEag": 7969,
      "ĠOklahoma": 7970,
      "Ġeveryday": 7971,
      "izza": 7972,
      "epend": 7973,
      "umer": 7974,
      "ĠJews": 7975,
      "EG": 7976,
      "Ġflag": 7977,
      "Good": 7978,
      "cia": 7979,
      "ĠFather": 7980,
      "Ġentitled": 7981,
      "Ġdecent": 7982,
      "ĠJosh": 7983,
      "Ġsoil": 7984,
      "days": 7985,
      "Ġcenters": 7986,
      "amework": 7987,
      "imore": 7988,
      "Ġbab": 7989,
      "Ġ55": 7990,
      "ĠSupp": 7991,
      "oked": 7992,
      "Ġreplacement": 7993,
      "Ġcombat": 7994,
      "ILL": 7995,
      "Wed": 7996,
      "Ġprogramming": 7997,
      "Ġvoting": 7998,
      "formance": 7999,
      "uous": 8000,
      "Ġflying": 8001,
      "annels": 8002,
      "lock": 8003,
      "Ġmagic": 8004,
      "Ġbehalf": 8005,
      "ogether": 8006,
      "ĠFREE": 8007,
      "bles": 8008,
      "owned": 8009,
      "mann": 8010,
      "lections": 8011,
      "Ġreputation": 8012,
      "RC": 8013,
      "Ġachieved": 8014,
      "Ġpleasure": 8015,
      "Ġparticipation": 8016,
      "otton": 8017,
      "ificate": 8018,
      "Ġmerely": 8019,
      "Ġpriority": 8020,
      "Ġmig": 8021,
      "Ġinterior": 8022,
      "ĠMill": 8023,
      "Ġultimate": 8024,
      "Have": 8025,
      "Ġinnings": 8026,
      "letter": 8027,
      "ĠBarb": 8028,
      "Ġopposed": 8029,
      "Ġconvenient": 8030,
      "ĠStudent": 8031,
      "Ġdining": 8032,
      "Ġproven": 8033,
      "Ġadopted": 8034,
      "ĠOlympic": 8035,
      "Ġeggs": 8036,
      "AV": 8037,
      "Ġphones": 8038,
      "Ġpremium": 8039,
      "ĠSat": 8040,
      "Ġgovernments": 8041,
      "isa": 8042,
      "Ġaband": 8043,
      "Ġboss": 8044,
      "Ġpipe": 8045,
      "Ġadventure": 8046,
      "oga": 8047,
      "Ġeligible": 8048,
      "Ġappointed": 8049,
      "Ġscheme": 8050,
      "Ġharder": 8051,
      "low": 8052,
      "stery": 8053,
      "Ġblind": 8054,
      "ĠBalt": 8055,
      "Ġisol": 8056,
      "bridge": 8057,
      "Ġstring": 8058,
      "ERE": 8059,
      "Ġmainly": 8060,
      "Ġadj": 8061,
      "eping": 8062,
      "Ġunem": 8063,
      "ĠResp": 8064,
      "ĠDallas": 8065,
      "Ġamounts": 8066,
      "Ġstations": 8067,
      "ĠED": 8068,
      "Ġprotest": 8069,
      "ĠDetroit": 8070,
      "ĠDisney": 8071,
      "Ġchart": 8072,
      "Ġfaced": 8073,
      "pat": 8074,
      "ĠNic": 8075,
      "Ġplain": 8076,
      "Ġbrands": 8077,
      "ĠRoman": 8078,
      "ĠVegas": 8079,
      "odge": 8080,
      "ĠWorks": 8081,
      "Ġpasses": 8082,
      "Ġproducing": 8083,
      "incoln": 8084,
      "Ġfarmers": 8085,
      "da": 8086,
      "ĠNever": 8087,
      "ALL": 8088,
      "ĠPhys": 8089,
      "Ġchances": 8090,
      "Ġplane": 8091,
      "Ġnations": 8092,
      "ĠRoll": 8093,
      "after": 8094,
      "Ġunderstood": 8095,
      "oured": 8096,
      "ĠHoward": 8097,
      "iary": 8098,
      "Ġindicated": 8099,
      "Ġdriven": 8100,
      "acked": 8101,
      "ĠSpain": 8102,
      "SC": 8103,
      "Ġadmit": 8104,
      "Ġchampionship": 8105,
      "ĠMemorial": 8106,
      "osm": 8107,
      "Ġalt": 8108,
      "Ġsentence": 8109,
      "Ġvacc": 8110,
      "Ġsustainable": 8111,
      "Ġcollaboration": 8112,
      "oper": 8113,
      "Ġjoining": 8114,
      "Ġoven": 8115,
      "ĠTravel": 8116,
      "heim": 8117,
      "izer": 8118,
      "ĠMobile": 8119,
      "Ġsuggestions": 8120,
      "Ġsomehow": 8121,
      "ĠSir": 8122,
      "Ġdynamic": 8123,
      "Ġpushed": 8124,
      "Orig": 8125,
      "organ": 8126,
      "Because": 8127,
      "Ġconsideration": 8128,
      "ĠFac": 8129,
      "Ġnarr": 8130,
      "ĠSC": 8131,
      "ĠCab": 8132,
      "Ġpink": 8133,
      "Ġgenerated": 8134,
      "ĠStore": 8135,
      "ĠPolit": 8136,
      "Ġwithd": 8137,
      "ĠAsian": 8138,
      "Ġfacilit": 8139,
      "Ġsubjects": 8140,
      "Ġdust": 8141,
      "Ġroot": 8142,
      "Ġelections": 8143,
      "Ġaddresses": 8144,
      "inth": 8145,
      "Ġpotentially": 8146,
      "roduction": 8147,
      "Sub": 8148,
      "ĠAnderson": 8149,
      "Ġheading": 8150,
      "Ġfirms": 8151,
      "Ġliterally": 8152,
      "stract": 8153,
      "ĠDark": 8154,
      "Part": 8155,
      "Ġminister": 8156,
      "Ġtechnique": 8157,
      "Ġske": 8158,
      "Ġmarks": 8159,
      "lements": 8160,
      "gel": 8161,
      "Aug": 8162,
      "usal": 8163,
      "Ġoverwhel": 8164,
      "%.": 8165,
      "Ġtired": 8166,
      "400": 8167,
      "Ġblow": 8168,
      "Ġequival": 8169,
      "News": 8170,
      "Ġborrow": 8171,
      "print": 8172,
      "essee": 8173,
      "Ġstir": 8174,
      "ART": 8175,
      "Ġstrongly": 8176,
      "Ġauto": 8177,
      "they": 8178,
      "ĠTax": 8179,
      "ruption": 8180,
      "iate": 8181,
      "ĠMaryland": 8182,
      "Ġrecipes": 8183,
      "Ġprope": 8184,
      "Ġstronger": 8185,
      "Ġexplos": 8186,
      "ĠFall": 8187,
      "Ġboards": 8188,
      "Ġmistake": 8189,
      "Ġreact": 8190,
      "Ġraw": 8191,
      "Ġcontributions": 8192,
      "Ġperformances": 8193,
      "Ġliterature": 8194,
      "ĠMassachusetts": 8195,
      "Ġrecover": 8196,
      "ĠSenior": 8197,
      "Ġcolleagues": 8198,
      "ĠTen": 8199,
      "onder": 8200,
      "riers": 8201,
      "Ġfinger": 8202,
      "Ġtelephone": 8203,
      "tra": 8204,
      "parent": 8205,
      "inte": 8206,
      "Ġraising": 8207,
      "Ġauthent": 8208,
      "ĠJordan": 8209,
      "swered": 8210,
      "PD": 8211,
      "Ġease": 8212,
      "ĠToronto": 8213,
      "Ġloose": 8214,
      "ĠSuch": 8215,
      "Ġloans": 8216,
      "Ġavailability": 8217,
      ".-": 8218,
      "Ġrepresentative": 8219,
      "ĠMir": 8220,
      "ĠJun": 8221,
      "Ġscores": 8222,
      "ĠMuslim": 8223,
      "imp": 8224,
      "Ġdismiss": 8225,
      "Ġrecru": 8226,
      "April": 8227,
      "Ġwarning": 8228,
      "ĠMoore": 8229,
      "ĠHas": 8230,
      "UD": 8231,
      "Ġbands": 8232,
      "Ġindicate": 8233,
      "Ġprovision": 8234,
      "Ġsmoke": 8235,
      "Ġthousand": 8236,
      "Ġobserved": 8237,
      "holders": 8238,
      "iac": 8239,
      "Ġcleaning": 8240,
      "ĠApplic": 8241,
      "ĠML": 8242,
      "Ġassociation": 8243,
      "Ġlegend": 8244,
      "Ġretirement": 8245,
      "unes": 8246,
      "ĠGreek": 8247,
      "ĠCond": 8248,
      "Ġtradem": 8249,
      "Ġmanaging": 8250,
      "Ġbid": 8251,
      "Ġ07": 8252,
      "Ġspark": 8253,
      "Ġinitiative": 8254,
      "ĠBrother": 8255,
      "Ġcovering": 8256,
      "ĠDO": 8257,
      "Ġtor": 8258,
      "Ġhadn": 8259,
      "ĠGro": 8260,
      "Ġremem": 8261,
      "ĠArm": 8262,
      "Ġmemories": 8263,
      "Ġtone": 8264,
      "Ġcompr": 8265,
      "hemat": 8266,
      "Ġmatches": 8267,
      "lers": 8268,
      "ĠLocal": 8269,
      "ishop": 8270,
      "ĠHur": 8271,
      "Ġlets": 8272,
      "folio": 8273,
      "TE": 8274,
      "Star": 8275,
      "Ġ(\"": 8276,
      "Ġintense": 8277,
      "ĠCON": 8278,
      "Ġabsor": 8279,
      "Ġads": 8280,
      "ĠIndiana": 8281,
      "Ġcontaining": 8282,
      "ĠAllen": 8283,
      "ĠFact": 8284,
      "Ġextension": 8285,
      "ĠOrder": 8286,
      "ĠFurther": 8287,
      "Ġanx": 8288,
      "erving": 8289,
      "ĠPerhaps": 8290,
      "fall": 8291,
      "Ġsamples": 8292,
      "Ġbirds": 8293,
      "ĠIslam": 8294,
      "Ġgraphics": 8295,
      "Ġly": 8296,
      "87": 8297,
      "haust": 8298,
      "Ġsearching": 8299,
      "Ġclosing": 8300,
      "Ġcoc": 8301,
      "Ġ02": 8302,
      "Ġunknown": 8303,
      "Ġchampion": 8304,
      "Ġbrilliant": 8305,
      "Ġproved": 8306,
      "Ġlapt": 8307,
      "Ġ1994": 8308,
      "otted": 8309,
      "Ġreducing": 8310,
      "bow": 8311,
      "omething": 8312,
      "Ġscan": 8313,
      "Ġcareful": 8314,
      "Stud": 8315,
      "ĠBuilding": 8316,
      "icious": 8317,
      "Ġwake": 8318,
      "Ġunw": 8319,
      "Tube": 8320,
      "Ġreliable": 8321,
      "ĠUlt": 8322,
      "Ġattitude": 8323,
      "Ġtape": 8324,
      "ĠUsing": 8325,
      "Free": 8326,
      "Ġhidden": 8327,
      "Ġheaven": 8328,
      "Ġguidelines": 8329,
      "ĠNon": 8330,
      "ĠPDF": 8331,
      "ĠZeal": 8332,
      "Ġinnovation": 8333,
      "ouri": 8334,
      "ington": 8335,
      "aste": 8336,
      "ĠPhill": 8337,
      "Ġsections": 8338,
      "iah": 8339,
      "ĠWhether": 8340,
      "ĠHay": 8341,
      "ĠRen": 8342,
      "Ġnights": 8343,
      "Pre": 8344,
      "Ġarrive": 8345,
      "Ġblank": 8346,
      "ĠLine": 8347,
      "Ġru": 8348,
      "Ġleather": 8349,
      "?)": 8350,
      "Ġceremony": 8351,
      "Ġinspiration": 8352,
      "Ġinch": 8353,
      "Ġasks": 8354,
      "ĠUr": 8355,
      "ĠTraining": 8356,
      "People": 8357,
      "ĠPakistan": 8358,
      "Ġsouthern": 8359,
      "Ġaccessible": 8360,
      "âĢ¦.": 8361,
      "Ġannouncement": 8362,
      "ĠLas": 8363,
      "ĠSoftware": 8364,
      "Ġmargin": 8365,
      "Ġadequ": 8366,
      "Ġinterviews": 8367,
      "ĠLLC": 8368,
      "ĠHeart": 8369,
      "Ġdestination": 8370,
      "Ġkiss": 8371,
      "post": 8372,
      "Ġlegit": 8373,
      "ĠHelp": 8374,
      "ĠCro": 8375,
      "uine": 8376,
      "Ġwondering": 8377,
      "Ġlessons": 8378,
      "Ġrural": 8379,
      "ĠQueen": 8380,
      "Ġdenied": 8381,
      "Ġchest": 8382,
      "Ġqualified": 8383,
      "Ġspots": 8384,
      "Ġracing": 8385,
      "Ġgenerate": 8386,
      "Ġlandscape": 8387,
      "Ġgallery": 8388,
      "bi": 8389,
      "Ġlawyer": 8390,
      "osc": 8391,
      "opher": 8392,
      "mod": 8393,
      "abama": 8394,
      "Ġsizes": 8395,
      "Ġstupid": 8396,
      "Ġfinance": 8397,
      "zes": 8398,
      "Ġtact": 8399,
      "Ġpenalty": 8400,
      "ĠBuff": 8401,
      "dis": 8402,
      "Before": 8403,
      "Ġcomparison": 8404,
      ".;": 8405,
      "Ġexceed": 8406,
      "ĠRus": 8407,
      "ĠUnfortunately": 8408,
      "Ġphenomen": 8409,
      "quest": 8410,
      "ersion": 8411,
      "Ġcopies": 8412,
      "vol": 8413,
      "ighth": 8414,
      "Ġcapabilities": 8415,
      "ĠIss": 8416,
      "ĠResources": 8417,
      "Ġlighting": 8418,
      "Ġconsequences": 8419,
      "Ġequally": 8420,
      "Ġdispl": 8421,
      "wich": 8422,
      "ĠEU": 8423,
      "ĠKelly": 8424,
      "Ġcoaches": 8425,
      "Ġrice": 8426,
      "pton": 8427,
      "orses": 8428,
      "Ġregions": 8429,
      "Ġvulner": 8430,
      "rient": 8431,
      "ĠStory": 8432,
      "ĠExpress": 8433,
      "Ġarchitecture": 8434,
      "Ġrecall": 8435,
      "Ġ64": 8436,
      "ahoo": 8437,
      "Ġstyles": 8438,
      "].": 8439,
      "Ġroles": 8440,
      "Ġfewer": 8441,
      "ĠCapt": 8442,
      "Ġbrothers": 8443,
      "Ġsurve": 8444,
      "ystem": 8445,
      "Ġ44": 8446,
      "ĠSmall": 8447,
      "ĠTheatre": 8448,
      "everal": 8449,
      "Ġaffordable": 8450,
      "Ġvolunteer": 8451,
      "ĠGarden": 8452,
      "Ġclubs": 8453,
      "ĠCorp": 8454,
      "ĠKentucky": 8455,
      "Ġstrict": 8456,
      "Ġhandling": 8457,
      "Ġexhibition": 8458,
      "Ġsaving": 8459,
      "Ġgentle": 8460,
      "owers": 8461,
      "clude": 8462,
      "ĠForum": 8463,
      "2008": 8464,
      "Ġresistance": 8465,
      "Ġ46": 8466,
      "omic": 8467,
      "ĠJudge": 8468,
      "ĠPS": 8469,
      "Ġanswered": 8470,
      "ĠForest": 8471,
      "Ġresponded": 8472,
      "Ġtort": 8473,
      "Ġinner": 8474,
      "Ġconclusion": 8475,
      "ĠSometimes": 8476,
      "Ġbills": 8477,
      "ĠLtd": 8478,
      "Ġinstruction": 8479,
      "ĠGolden": 8480,
      "raction": 8481,
      "ĠCert": 8482,
      "Ġsinger": 8483,
      "Ġ47": 8484,
      "Ġ1970": 8485,
      "Ġsixth": 8486,
      "Ġtrips": 8487,
      "Ġhosted": 8488,
      "ĠEth": 8489,
      "Ġunusual": 8490,
      "ocated": 8491,
      "Ġmerch": 8492,
      "ĠNBA": 8493,
      "Ġactor": 8494,
      "Ġescape": 8495,
      "Ġroads": 8496,
      "Ġinvolves": 8497,
      "Ġpreferred": 8498,
      "ĠSafety": 8499,
      "Comp": 8500,
      "Ġtum": 8501,
      "ĠKorea": 8502,
      "Ġappointment": 8503,
      "Ġbass": 8504,
      "Ġchannels": 8505,
      "Ġexposed": 8506,
      "iro": 8507,
      "will": 8508,
      "verty": 8509,
      "Ġclock": 8510,
      "jection": 8511,
      "ĠZealand": 8512,
      "Ġdiscussions": 8513,
      "ĠCP": 8514,
      "Ġpreparation": 8515,
      "ĠProp": 8516,
      "orous": 8517,
      "Ġtrends": 8518,
      "Ġbars": 8519,
      "March": 8520,
      "Ġentering": 8521,
      "Ġworried": 8522,
      "ĠSem": 8523,
      "olds": 8524,
      "Ġfired": 8525,
      "ĠPatrick": 8526,
      "ĠWhich": 8527,
      "Ġconcerning": 8528,
      "Ġlosses": 8529,
      "Ġlin": 8530,
      "irk": 8531,
      "Ġprize": 8532,
      "Ġimprovements": 8533,
      "Ġboot": 8534,
      "ĠCub": 8535,
      "Ġdisaster": 8536,
      "Ġdisplayed": 8537,
      "style": 8538,
      "Ġjail": 8539,
      "Ġriding": 8540,
      "Ġgained": 8541,
      "athered": 8542,
      "Date": 8543,
      "Ob": 8544,
      "Ġerrors": 8545,
      "Ġaccord": 8546,
      "sub": 8547,
      "Dav": 8548,
      "Ġintroduction": 8549,
      "bsite": 8550,
      "Ġconsumption": 8551,
      "ĠPu": 8552,
      "Ġregardless": 8553,
      "ogen": 8554,
      "Ġuniform": 8555,
      "Ġpoverty": 8556,
      "aver": 8557,
      "sen": 8558,
      "Ġentreprene": 8559,
      "Ġparam": 8560,
      "ĠSarah": 8561,
      "El": 8562,
      "rary": 8563,
      "aret": 8564,
      "Ġvit": 8565,
      "ĠCamer": 8566,
      "Welcome": 8567,
      "owed": 8568,
      "Ġrequested": 8569,
      "Ġguidance": 8570,
      "Ġhosting": 8571,
      "ila": 8572,
      "nie": 8573,
      "Ġsuperior": 8574,
      "Ġessentially": 8575,
      "ĠJam": 8576,
      "cience": 8577,
      "Ġdepends": 8578,
      "Ġelsewhere": 8579,
      "Ġ06": 8580,
      "Ġcrash": 8581,
      "ĠMarc": 8582,
      "Ġuncertain": 8583,
      "ĠRetrieved": 8584,
      "ormal": 8585,
      "zing": 8586,
      "Ġgreatly": 8587,
      "Ġtrem": 8588,
      "roller": 8589,
      "looking": 8590,
      "Ġblogs": 8591,
      "ĠEst": 8592,
      "hour": 8593,
      "Ġdeeply": 8594,
      "Ġsuitable": 8595,
      "Ġpetition": 8596,
      "icking": 8597,
      "Ġunex": 8598,
      "Ġsolo": 8599,
      "urities": 8600,
      "Ġpocket": 8601,
      "ĠDeb": 8602,
      "ista": 8603,
      "Ġhealthcare": 8604,
      "unicip": 8605,
      "rite": 8606,
      "Ġclassroom": 8607,
      "Ġintellectual": 8608,
      "ds": 8609,
      "ĠIsraeli": 8610,
      "Ġbuff": 8611,
      "kel": 8612,
      "intage": 8613,
      "ĠStew": 8614,
      "char": 8615,
      "ounce": 8616,
      "Ġdecline": 8617,
      "Ġmanagers": 8618,
      "viously": 8619,
      "izon": 8620,
      "Ġweird": 8621,
      "Ġrefused": 8622,
      "ĠSquare": 8623,
      "je": 8624,
      "Ġdistributed": 8625,
      "oric": 8626,
      "Ġoblig": 8627,
      "Co": 8628,
      "ership": 8629,
      "Ġanniversary": 8630,
      "onymous": 8631,
      "ĠAttorney": 8632,
      "Ġvisible": 8633,
      "Ġmoist": 8634,
      "ĠPalestin": 8635,
      "UM": 8636,
      "world": 8637,
      "Ġaver": 8638,
      "Ġquote": 8639,
      "ĠClin": 8640,
      "Ġparticipating": 8641,
      "Ġcomplaint": 8642,
      "Ġfrustr": 8643,
      "HT": 8644,
      "leans": 8645,
      "Ġfalls": 8646,
      "Ġproducer": 8647,
      "icity": 8648,
      "ĠTro": 8649,
      "Ġshell": 8650,
      "ĠCreek": 8651,
      "Ġretired": 8652,
      "Ġofficially": 8653,
      "Ġgonna": 8654,
      "ogy": 8655,
      "Ġ05": 8656,
      "Ġcups": 8657,
      "Ġdesper": 8658,
      "uh": 8659,
      "Ġupload": 8660,
      "ĠTry": 8661,
      "Ġsensitive": 8662,
      "Ġcompare": 8663,
      "Ġpreced": 8664,
      "Ġ800": 8665,
      "Ġswing": 8666,
      "Rem": 8667,
      "gov": 8668,
      "ĠMarsh": 8669,
      "ĠPubl": 8670,
      "ĠElizabeth": 8671,
      "ĠBudd": 8672,
      "Ġextract": 8673,
      "Ġcontracts": 8674,
      "Ġchairman": 8675,
      "Ġopens": 8676,
      "Ġboxes": 8677,
      "ĠStock": 8678,
      "Ġsynt": 8679,
      "ĠAnnual": 8680,
      "ĠNO": 8681,
      "cludes": 8682,
      "ulum": 8683,
      "Ġmeets": 8684,
      "Comm": 8685,
      "ĠMembers": 8686,
      "Ġexists": 8687,
      "Ġargue": 8688,
      "ĠEnt": 8689,
      "ĠHim": 8690,
      "books": 8691,
      "oosing": 8692,
      "Ġphotography": 8693,
      "rec": 8694,
      "lessly": 8695,
      "isdom": 8696,
      "Ġguns": 8697,
      "ashes": 8698,
      "Ġheavily": 8699,
      "Ġ03": 8700,
      "ĠAustin": 8701,
      "Ġgovernor": 8702,
      "Ġreven": 8703,
      "cribed": 8704,
      "Friday": 8705,
      "Ġsubstantial": 8706,
      "Ġ04": 8707,
      "ĠDefense": 8708,
      "Ġpill": 8709,
      "ĠEmer": 8710,
      "ĠTennessee": 8711,
      "HS": 8712,
      "Ġlawsu": 8713,
      "cover": 8714,
      "Ġlady": 8715,
      "Ġsomebody": 8716,
      "Ġyard": 8717,
      "ĠMah": 8718,
      "Dis": 8719,
      "Ġfurniture": 8720,
      "Ġocean": 8721,
      "ĠMother": 8722,
      "ĠPriv": 8723,
      "Ġrecy": 8724,
      "Ġtomat": 8725,
      "ĠBad": 8726,
      "ĠDNA": 8727,
      "Ġranked": 8728,
      "rets": 8729,
      "words": 8730,
      "Ġwinners": 8731,
      "ĠServer": 8732,
      "Ġcriteria": 8733,
      "Ġconnections": 8734,
      "Ġdrama": 8735,
      "ĠMarketing": 8736,
      "Ġdescribes": 8737,
      "ĠâĢĻ": 8738,
      "Ġgene": 8739,
      "ĠTherefore": 8740,
      "ĠRoy": 8741,
      "Ġvessel": 8742,
      "Ġliberal": 8743,
      "Ġarr": 8744,
      "Ġundert": 8745,
      "ĠBarack": 8746,
      "Ġphilosophy": 8747,
      "Ġpilot": 8748,
      "CO": 8749,
      "ĠLincoln": 8750,
      "ieties": 8751,
      "ools": 8752,
      "Ġprincipal": 8753,
      "ĠFA": 8754,
      "Contact": 8755,
      "Ġgap": 8756,
      "Ġcalendar": 8757,
      "ĠBaltimore": 8758,
      "Her": 8759,
      "Great": 8760,
      "Ġsolve": 8761,
      "ko": 8762,
      "Ġham": 8763,
      "Ġjury": 8764,
      "asted": 8765,
      "Ġexpenses": 8766,
      "blog": 8767,
      "ĠIM": 8768,
      "Ġjuice": 8769,
      "ĠEnvironmental": 8770,
      "ĠBud": 8771,
      "Ġcircuit": 8772,
      "ĠVery": 8773,
      "ardens": 8774,
      "through": 8775,
      "Ġwaters": 8776,
      "Ġmad": 8777,
      "ceeds": 8778,
      "pert": 8779,
      "ĠAction": 8780,
      "ĠPract": 8781,
      "Ġveteran": 8782,
      "ais": 8783,
      "Ġrib": 8784,
      "Ġmob": 8785,
      "Ju": 8786,
      "Ġtestim": 8787,
      "Ġpowder": 8788,
      "wan": 8789,
      "Ġacceler": 8790,
      "Ġstaying": 8791,
      "what": 8792,
      "vard": 8793,
      "ĠSant": 8794,
      "Ġmaintained": 8795,
      "Ġarray": 8796,
      "stal": 8797,
      "\")": 8798,
      "Ġstored": 8799,
      "ĠHart": 8800,
      "Ġpig": 8801,
      "Ġforecast": 8802,
      "ĠOrleans": 8803,
      "IDS": 8804,
      "Ġassigned": 8805,
      "Ġtraveling": 8806,
      "Ġprivile": 8807,
      "Ġstructures": 8808,
      "ĠWas": 8809,
      "Ġwhenever": 8810,
      "Ġ1993": 8811,
      "ĠLyn": 8812,
      "Ġdiseases": 8813,
      "ĠFR": 8814,
      "IST": 8815,
      "ĠCapital": 8816,
      "mers": 8817,
      "Ġinitially": 8818,
      "visor": 8819,
      "Ġdozen": 8820,
      "ĠSS": 8821,
      "Ġdreams": 8822,
      "61": 8823,
      "ĠAccount": 8824,
      "ĠCooper": 8825,
      "Ġlifestyle": 8826,
      "Ġscream": 8827,
      "FA": 8828,
      "Ġmood": 8829,
      "Ġacknowled": 8830,
      "ĠUC": 8831,
      "Ġsecondary": 8832,
      "ĠNCAA": 8833,
      "ĠClark": 8834,
      "Ġ~": 8835,
      "ĠCancer": 8836,
      "ĠVice": 8837,
      "Ġdesired": 8838,
      "Ġpersonality": 8839,
      "Ġinstant": 8840,
      "Ġtasks": 8841,
      "Ġnorthern": 8842,
      "una": 8843,
      "itionally": 8844,
      "Ġdeclared": 8845,
      "Ġterrible": 8846,
      "Mark": 8847,
      "sex": 8848,
      "Ġprime": 8849,
      "ĠBat": 8850,
      "ĠFer": 8851,
      "Ġchecked": 8852,
      "ĠCas": 8853,
      "Ġstake": 8854,
      "Ġdrag": 8855,
      "lla": 8856,
      "rav": 8857,
      "rine": 8858,
      "isd": 8859,
      "Ġupgrade": 8860,
      "Ġcolon": 8861,
      "Ġthrew": 8862,
      "ĠHawai": 8863,
      "Ġacquis": 8864,
      "HA": 8865,
      "ĠPur": 8866,
      "ĠRoss": 8867,
      "Ġagenda": 8868,
      "ayer": 8869,
      "ĠAst": 8870,
      "Ġsurvive": 8871,
      "Ġweapon": 8872,
      "Christ": 8873,
      "Ġchildhood": 8874,
      "Ġbedroom": 8875,
      "Ġloving": 8876,
      "ĠNations": 8877,
      "Ġdemands": 8878,
      "ĠNatural": 8879,
      "ĠProdu": 8880,
      "Ġspeaker": 8881,
      "Ġ41": 8882,
      "--------": 8883,
      "Ġelectricity": 8884,
      "Ġaddressed": 8885,
      "Ġstable": 8886,
      "ĠAlabama": 8887,
      "ĠGallery": 8888,
      "Ġphotographs": 8889,
      "enter": 8890,
      "ickets": 8891,
      "acter": 8892,
      "Ġ43": 8893,
      "Ġbaking": 8894,
      "ĠDream": 8895,
      "Ġelectron": 8896,
      "don": 8897,
      "Ġassists": 8898,
      "ĠMatthew": 8899,
      "Ġvisits": 8900,
      "Ġattractive": 8901,
      "''": 8902,
      "Ġrequirement": 8903,
      "Ġluxury": 8904,
      "owered": 8905,
      "ĠMember": 8906,
      "UC": 8907,
      "igure": 8908,
      "giving": 8909,
      "Ġdistingu": 8910,
      "itis": 8911,
      "Ġhotels": 8912,
      "agra": 8913,
      "chers": 8914,
      "ospitals": 8915,
      "Ġexhaust": 8916,
      "udes": 8917,
      "Ġeleg": 8918,
      "Ġshirt": 8919,
      "Ġcomic": 8920,
      "72": 8921,
      "orgeous": 8922,
      "Ġequivalent": 8923,
      "ĠDer": 8924,
      "ĠLink": 8925,
      "Ġuniverse": 8926,
      "Ġemployed": 8927,
      "ĠFilm": 8928,
      "power": 8929,
      "ĠET": 8930,
      "ja": 8931,
      "ĠDead": 8932,
      "Ġgenuine": 8933,
      "Ġconsists": 8934,
      "...]": 8935,
      "called": 8936,
      "Ġdrives": 8937,
      "ĠYouTube": 8938,
      "........": 8939,
      "Ġmeals": 8940,
      "ĠHarris": 8941,
      "ĠViet": 8942,
      "Ġtalented": 8943,
      "ĠAve": 8944,
      "Ġspaces": 8945,
      "awa": 8946,
      "Ġje": 8947,
      "Ġtheater": 8948,
      "ding": 8949,
      "aire": 8950,
      "ami": 8951,
      "Ġcontributed": 8952,
      "Ġsuffer": 8953,
      "ĠBow": 8954,
      "ĠAirport": 8955,
      "Ok": 8956,
      "race": 8957,
      "Ġviewing": 8958,
      "Ġzero": 8959,
      "Ġcomprom": 8960,
      "Ġoccurs": 8961,
      "istent": 8962,
      "ĠOfficer": 8963,
      "âĢł": 8964,
      "Ġoutcome": 8965,
      "Ġdisag": 8966,
      "Ġlibr": 8967,
      "ulpt": 8968,
      "Ġhip": 8969,
      "Ġmanufacturers": 8970,
      "Ġtill": 8971,
      "ĠHor": 8972,
      "Ġraces": 8973,
      "Ġinfection": 8974,
      "Ġsinging": 8975,
      "Ġdramatic": 8976,
      "ols": 8977,
      "ĠGre": 8978,
      "ĠKingdom": 8979,
      "acular": 8980,
      "Ġenjoying": 8981,
      "Ġspell": 8982,
      "ĠChampionship": 8983,
      "Ġshops": 8984,
      "ighters": 8985,
      "Ġmanual": 8986,
      "Ġrapidly": 8987,
      "Ġrarely": 8988,
      "Ġ1992": 8989,
      "Ġthy": 8990,
      "Ġrespectively": 8991,
      "Ġattending": 8992,
      "Ġwestern": 8993,
      "raig": 8994,
      "73": 8995,
      "hire": 8996,
      "atellite": 8997,
      "Ġconscious": 8998,
      "Ġincredibly": 8999,
      "Ġpackages": 9000,
      "ĠCopyright": 9001,
      "Ġcoup": 9002,
      "ĠSwed": 9003,
      "Gl": 9004,
      "vit": 9005,
      "Ġinteractive": 9006,
      "QL": 9007,
      "Ġestimates": 9008,
      "nce": 9009,
      "mate": 9010,
      "about": 9011,
      "Ġinsight": 9012,
      "ĠEngineering": 9013,
      "Ġelectrical": 9014,
      "Ġblame": 9015,
      "uten": 9016,
      "June": 9017,
      "town": 9018,
      "Ġlesson": 9019,
      "63": 9020,
      "Ġfingers": 9021,
      "ropri": 9022,
      "rection": 9023,
      "ĠCL": 9024,
      "Ġstatistics": 9025,
      "Ġorange": 9026,
      "Top": 9027,
      "Ġcomedy": 9028,
      "Ġpod": 9029,
      "ĠChristians": 9030,
      "Ġreaching": 9031,
      "ĠCurrent": 9032,
      "Ġjewel": 9033,
      "Ġtub": 9034,
      "âĢĻ.": 9035,
      "Ġlogo": 9036,
      "eling": 9037,
      "Ġnose": 9038,
      "Ġrebounds": 9039,
      "ĠFed": 9040,
      "Ġvent": 9041,
      "Ġfranchise": 9042,
      "Ġcrucial": 9043,
      "Ġwash": 9044,
      "Ġknee": 9045,
      "uters": 9046,
      "Ġimpressed": 9047,
      "olar": 9048,
      "Ġhardly": 9049,
      "Ġshock": 9050,
      "ĠPhoto": 9051,
      "html": 9052,
      "Ge": 9053,
      "Ġpushing": 9054,
      "Ġprogramme": 9055,
      "ĠChapter": 9056,
      "Ġprinciple": 9057,
      "ĠMach": 9058,
      "Ġinteract": 9059,
      "ĠSciences": 9060,
      "ĠStation": 9061,
      "Ġdestroyed": 9062,
      "Ġbone": 9063,
      "ĠComments": 9064,
      "62": 9065,
      "Ġoverse": 9066,
      "84": 9067,
      "Ġpossession": 9068,
      "ĠDespite": 9069,
      "ĠProm": 9070,
      "Ġcameras": 9071,
      "cut": 9072,
      "attan": 9073,
      "ĠMotor": 9074,
      "Ġfiction": 9075,
      "ĠBand": 9076,
      "Ġsuck": 9077,
      "Ġclim": 9078,
      "Ġcasual": 9079,
      "Ġsquad": 9080,
      "Ġpreparing": 9081,
      "bits": 9082,
      "bors": 9083,
      "Best": 9084,
      "ĠAtlantic": 9085,
      "ĠUtah": 9086,
      "Ġpitc": 9087,
      "Ġminds": 9088,
      "iler": 9089,
      "ĠPrime": 9090,
      "Ġmanufacturer": 9091,
      "ĠAnthony": 9092,
      "bered": 9093,
      "Ġlip": 9094,
      "ĠGovernor": 9095,
      "ĠPo": 9096,
      "tery": 9097,
      "elle": 9098,
      "ĠYanke": 9099,
      "Ġstudied": 9100,
      "Ġcelebration": 9101,
      "Ġbathroom": 9102,
      "Ġexplo": 9103,
      "ĠPsych": 9104,
      "phones": 9105,
      "via": 9106,
      "ĠRegional": 9107,
      "KE": 9108,
      "Ġtoler": 9109,
      "Ġmic": 9110,
      "Ġmortgage": 9111,
      "Ġ52": 9112,
      "gener": 9113,
      "Ġacquired": 9114,
      "ĠAnton": 9115,
      "icut": 9116,
      "Ġokay": 9117,
      "Ġprovisions": 9118,
      "vision": 9119,
      "ĠSound": 9120,
      "ĠEX": 9121,
      "ĠDu": 9122,
      "ĠBeck": 9123,
      "ĠHell": 9124,
      "Ġouts": 9125,
      "week": 9126,
      "Car": 9127,
      "ologists": 9128,
      "anguage": 9129,
      "esy": 9130,
      "Cal": 9131,
      "Ġbuck": 9132,
      "ĠTrade": 9133,
      "only": 9134,
      "igious": 9135,
      "Ġbarely": 9136,
      "urable": 9137,
      "Mon": 9138,
      "Ġrepresentatives": 9139,
      "Ġgig": 9140,
      "Ġtox": 9141,
      "Ġdeploy": 9142,
      "eters": 9143,
      "Ġ]": 9144,
      "Ġcompat": 9145,
      "Ġfounder": 9146,
      "Each": 9147,
      "onic": 9148,
      "ĠOs": 9149,
      "ĠConvention": 9150,
      "Ġprayer": 9151,
      "ĠSE": 9152,
      "Ġwise": 9153,
      "Ġresulted": 9154,
      "Ġwanting": 9155,
      "ĠStandard": 9156,
      "amsung": 9157,
      "ĠDenver": 9158,
      "Ġhide": 9159,
      "Ġmyth": 9160,
      "Ġreleases": 9161,
      "rowse": 9162,
      "ĠMorgan": 9163,
      "Ġspeakers": 9164,
      "ĠChange": 9165,
      "Sim": 9166,
      "Ġpacked": 9167,
      "ĠEvent": 9168,
      "Ġski": 9169,
      "Ġnaturally": 9170,
      "MC": 9171,
      "ĠDownload": 9172,
      "ĠHT": 9173,
      "ĠLib": 9174,
      "quarters": 9175,
      "Ġmolec": 9176,
      "Ġupset": 9177,
      "ĠEmp": 9178,
      "Ġnobody": 9179,
      "Ġcontribution": 9180,
      "Ġgrounds": 9181,
      "apolis": 9182,
      "vals": 9183,
      "Ġmuscle": 9184,
      "ITY": 9185,
      "pled": 9186,
      "vas": 9187,
      "ishment": 9188,
      "ĠOil": 9189,
      "month": 9190,
      "criptions": 9191,
      "gie": 9192,
      "Ġrental": 9193,
      "Ġenterprise": 9194,
      ")||": 9195,
      "Ġtemporary": 9196,
      "Ġevaluation": 9197,
      "DP": 9198,
      "Ġspokesman": 9199,
      "Ġtissue": 9200,
      "Ġenthusi": 9201,
      "%,": 9202,
      "Ġexpanded": 9203,
      "andal": 9204,
      "Ġbranch": 9205,
      "ĠShould": 9206,
      "ĠMissouri": 9207,
      "secutive": 9208,
      "Ġreviewed": 9209,
      "BN": 9210,
      "ORE": 9211,
      "alysis": 9212,
      "olen": 9213,
      "ĠBureau": 9214,
      "ĠNob": 9215,
      "ounding": 9216,
      "aa": 9217,
      "Ġpul": 9218,
      "Ġdivided": 9219,
      "aga": 9220,
      "Ġgang": 9221,
      "Ġarmed": 9222,
      "Ġcompe": 9223,
      "ĠChampions": 9224,
      "Down": 9225,
      "imize": 9226,
      "ĠTR": 9227,
      "Ġutility": 9228,
      "Ġlens": 9229,
      "erk": 9230,
      "ppy": 9231,
      "Ġvirtually": 9232,
      "Ġcul": 9233,
      "Ġlobby": 9234,
      "ĠMom": 9235,
      "Ġdrove": 9236,
      "ĠRub": 9237,
      "aters": 9238,
      "ĠCR": 9239,
      "ĠOrig": 9240,
      "ĠMu": 9241,
      "ĠAth": 9242,
      "Cons": 9243,
      "ibl": 9244,
      "ĠAsk": 9245,
      "Ġlanguages": 9246,
      "gged": 9247,
      "Ġtries": 9248,
      "def": 9249,
      "Ġexplanation": 9250,
      "Ġhanging": 9251,
      "2007": 9252,
      "Ġresort": 9253,
      "inating": 9254,
      "Ġbonus": 9255,
      "Ġbreaks": 9256,
      "Ġdefeat": 9257,
      "Ġteeth": 9258,
      "ĠEdward": 9259,
      "ourse": 9260,
      "ĠBarn": 9261,
      "Web": 9262,
      "elve": 9263,
      "ricts": 9264,
      "71": 9265,
      "pending": 9266,
      "Next": 9267,
      "Ġdiabetes": 9268,
      "Ġelectro": 9269,
      "unate": 9270,
      "Ġalleg": 9271,
      "Ġpermit": 9272,
      "UST": 9273,
      "Ġcatalog": 9274,
      "step": 9275,
      "ĠSeason": 9276,
      "Ġfitness": 9277,
      "Ġcommonly": 9278,
      "Ġcompliance": 9279,
      "Ġfur": 9280,
      "mble": 9281,
      "Ġemerging": 9282,
      "ĠProtection": 9283,
      "ĠRef": 9284,
      "Ġhopefully": 9285,
      "Ġimper": 9286,
      "Ġgrace": 9287,
      "zzle": 9288,
      "Ġtremend": 9289,
      "Ġapproaches": 9290,
      "ĠAmend": 9291,
      "ummer": 9292,
      "hyth": 9293,
      "Ġvegetables": 9294,
      "Ġmaintaining": 9295,
      "eng": 9296,
      "sect": 9297,
      "ĠMov": 9298,
      "ĠHold": 9299,
      "Ġinning": 9300,
      "resident": 9301,
      "brid": 9302,
      "zed": 9303,
      "ailed": 9304,
      "Ġstruggling": 9305,
      "Ġgate": 9306,
      "kee": 9307,
      "Ġgender": 9308,
[...]
